<pad>	0
<s>	0
</s>	0
<unk>	0
.	-2.72718
▁a	-3.21357
▁in	-3.43973
m	-3.78503
▁eine	-3.82141
▁A	-3.86856
s	-4.06457
▁Ein	-4.11399
,	-4.20405
▁the	-4.35217
▁und	-4.5704
▁mit	-4.57911
▁auf	-4.58144
▁on	-4.65674
n	-4.67038
▁Mann	-4.70521
▁is	-4.73988
▁man	-4.75331
▁and	-4.76404
▁	-4.76512
ing	-4.8072
▁of	-4.83344
▁einer	-4.86421
▁with	-4.93426
▁Eine	-4.98902
▁ein	-5.126
▁an	-5.18261
▁der	-5.25498
e	-5.27878
▁Frau	-5.32626
-	-5.40928
▁woman	-5.42256
▁are	-5.4496
▁die	-5.47121
▁einen	-5.57216
en	-5.58868
▁to	-5.59263
▁Zwei	-5.60082
▁Two	-5.62491
▁im	-5.63282
r	-5.6366
▁at	-5.71349
▁wearing	-5.79964
▁people	-5.82691
▁von	-5.90241
▁sich	-5.9368
▁white	-5.96707
▁shirt	-5.98763
▁Mädchen	-5.99592
▁dem	-6.00107
▁young	-6.02828
▁zu	-6.0499
▁vor	-6.0629
▁black	-6.07123
▁his	-6.08253
▁while	-6.10338
er	-6.11458
▁blue	-6.13435
t	-6.14751
▁steht	-6.18586
▁red	-6.19969
▁sitting	-6.20803
▁girl	-6.23092
▁Männer	-6.23802
▁den	-6.24038
ed	-6.24331
▁dog	-6.24354
▁boy	-6.25698
▁Hund	-6.27409
▁men	-6.27456
▁sitzt	-6.27704
▁standing	-6.28678
▁Junge	-6.29139
▁playing	-6.30469
▁group	-6.35051
▁street	-6.38121
▁Straße	-6.40746
▁look	-6.41118
▁down	-6.42778
▁während	-6.43484
▁her	-6.43717
▁walking	-6.44474
d	-6.45535
▁Gruppe	-6.45674
▁hält	-6.49132
▁spielt	-6.49198
▁seine	-6.50248
▁front	-6.52227
▁bei	-6.54645
▁holding	-6.55268
▁hat	-6.56551
▁Hemd	-6.56613
y	-6.57019
▁über	-6.57067
▁Personen	-6.61974
▁das	-6.63872
▁water	-6.64511
▁The	-6.68284
▁by	-6.71638
▁for	-6.75599
▁blauen	-6.77425
▁Frauen	-6.77492
▁Kind	-6.79122
▁aus	-6.79432
▁durch	-6.80206
▁up	-6.80266
▁ihre	-6.80352
▁neben	-6.80397
to	-6.80455
▁stehen	-6.81516
▁roten	-6.81649
▁ist	-6.81649
▁weißen	-6.81797
▁Menschen	-6.82109
ir	-6.83907
▁green	-6.84238
▁sitzen	-6.84542
▁Wasser	-6.84712
▁women	-6.84774
▁spielen	-6.86326
es	-6.87688
▁Drei	-6.87929
▁one	-6.89911
▁outside	-6.9015
▁child	-6.90261
▁geht	-6.91681
▁Thre	-6.9177
▁trägt	-6.92594
▁little	-6.93301
▁An	-6.93346
▁um	-6.93459
▁large	-6.94016
▁fährt	-6.94275
▁Person	-6.94843
▁T	-6.95619
▁Kinder	-6.95754
▁through	-6.96681
▁be	-6.97023
a	-6.99471
▁brown	-7.0133
▁yellow	-7.01587
▁two	-7.02494
▁ball	-7.02807
▁macht	-7.05266
▁kleines	-7.05353
▁springt	-7.07583
▁from	-7.08252
▁zwei	-7.09307
▁entlang	-7.09636
▁person	-7.11912
▁kleiner	-7.11982
▁schwarzen	-7.12377
st	-7.13692
▁over	-7.151
▁other	-7.15934
▁children	-7.16436
▁next	-7.17336
▁Leute	-7.17464
▁small	-7.18857
▁dressed	-7.21934
▁out	-7.22748
▁orange	-7.25409
▁building	-7.25475
▁gehen	-7.25525
ly	-7.27103
▁etwas	-7.3005
▁riding	-7.30215
▁running	-7.30723
▁People	-7.31067
▁near	-7.3124
▁jacket	-7.31829
▁Hand	-7.33018
▁großen	-7.33748
▁another	-7.34055
▁around	-7.34162
▁Oberteil	-7.34598
▁Man	-7.36001
▁Fahrrad	-7.3713
▁some	-7.37698
▁field	-7.38073
▁sidewalk	-7.38992
▁snow	-7.39787
'	-7.39934
▁beach	-7.41854
▁crowd	-7.42811
▁junge	-7.42962
l	-7.43027
▁pink	-7.43405
▁Mehrer	-7.44978
▁grünen	-7.45224
▁Ball	-7.46126
▁Strand	-7.46584
▁behind	-7.46989
▁läuft	-7.47014
h	-7.47087
▁sind	-7.476
▁jumping	-7.47688
▁table	-7.47766
▁stands	-7.47769
▁Der	-7.47844
▁sits	-7.48289
▁Jacke	-7.4878
▁für	-7.49455
▁Hintergrund	-7.49458
in	-7.50368
▁Luft	-7.50502
▁grass	-7.5142
b	-7.51928
f	-7.52503
▁Freien	-7.52633
▁Jungen	-7.53461
▁stand	-7.53923
▁background	-7.53924
▁ge	-7.54106
▁schaut	-7.54168
▁anderen	-7.54592
▁Kleidung	-7.55057
▁bike	-7.55655
o	-7.56109
▁hinter	-7.57035
▁top	-7.57236
▁junger	-7.58115
al	-7.58131
▁wall	-7.58149
▁nach	-7.58222
w	-7.58366
▁player	-7.60102
▁city	-7.60212
▁andere	-7.60513
▁Schnee	-7.61256
▁Tisch	-7.62928
▁Gebäude	-7.64023
p	-7.64138
▁off	-7.64538
▁camera	-7.64728
▁weiße	-7.6545
veral	-7.65563
▁gelben	-7.66082
u	-7.66181
▁air	-7.66441
▁that	-7.66674
▁play	-7.66898
▁park	-7.66995
▁hoch	-7.67409
▁Hunde	-7.68225
▁Kamera	-7.68419
▁blond	-7.68514
▁Hut	-7.68954
▁girls	-7.691
▁sie	-7.69188
▁dress	-7.6942
▁kleine	-7.69988
Shirt	-7.70838
▁Nähe	-7.71225
▁wird	-7.71231
▁guitar	-7.71729
▁hand	-7.71942
▁hold	-7.71974
▁S	-7.72097
▁vorbei	-7.72555
▁talking	-7.72637
▁something	-7.73053
▁hair	-7.73181
▁older	-7.75078
▁kleinen	-7.7509
▁Gras	-7.75182
▁Menschenmenge	-7.75183
▁along	-7.75723
▁dogs	-7.76084
▁er	-7.76262
▁schwarzer	-7.76741
▁car	-7.77062
▁unter	-7.77233
▁walks	-7.77515
▁Die	-7.77901
▁lady	-7.77912
▁together	-7.78189
▁soccer	-7.7819
▁Boden	-7.78747
▁food	-7.79025
▁working	-7.7918
▁gray	-7.80444
k	-7.80943
▁schwarz	-7.80965
▁game	-7.81288
▁ihr	-7.81421
▁t	-7.81918
▁picture	-7.82185
▁smiling	-7.8302
▁sein	-7.83446
▁rennt	-7.84486
▁has	-7.84632
▁Vier	-7.85109
▁Asian	-7.8601
▁Se	-7.86412
▁walk	-7.88025
▁Gitarre	-7.88451
▁boys	-7.88687
▁plays	-7.88972
▁zusammen	-7.89017
▁road	-7.90257
▁sit	-7.91678
▁Four	-7.91843
▁Kleid	-7.91882
ch	-7.92007
▁carry	-7.9208
▁him	-7.92162
▁it	-7.92454
▁bench	-7.9333
▁blaue	-7.93518
▁head	-7.93675
▁pants	-7.94743
▁glasses	-7.94776
▁Feld	-7.95732
▁stage	-7.95744
▁rote	-7.96258
▁Stadt	-7.96466
▁shorts	-7.96723
▁couple	-7.96727
▁dirt	-7.97062
▁Bühne	-7.97738
▁side	-7.98195
ä	-7.98354
▁herum	-7.98428
▁tree	-7.98753
▁face	-7.98761
▁bicycle	-7.98783
▁älterer	-7.9905
▁rock	-7.99375
▁baby	-7.99444
▁Foto	-8.00291
▁Kopf	-8.00464
▁Brille	-8.00468
i	-8.00523
▁fahren	-8.00936
▁race	-8.0114
each	-8.01451
▁draußen	-8.01865
▁Park	-8.02225
▁back	-8.02251
ge	-8.02686
▁Gehweg	-8.03281
▁tak	-8.04163
▁Jeans	-8.04351
▁gekleidete	-8.04504
▁old	-8.04569
▁des	-8.04607
▁boat	-8.04719
▁pool	-8.04786
▁male	-8.04846
▁long	-8.05079
▁Baby	-8.05443
▁sehen	-8.05895
▁hinunter	-8.06542
▁F	-8.06883
an	-8.07239
▁dabei	-8.08029
cross	-8.08283
▁doing	-8.08628
▁blickt	-8.08776
▁dark	-8.08777
ung	-8.0998
▁als	-8.10836
ü	-8.11222
▁watching	-8.11416
▁sand	-8.11479
le	-8.11518
▁jeans	-8.11633
▁area	-8.11771
▁Skateboard	-8.12081
▁middle	-8.12616
▁braunen	-8.12872
▁weißer	-8.13336
▁liegt	-8.13402
▁P	-8.13403
▁versucht	-8.13797
▁who	-8.13892
▁Essen	-8.14593
▁he	-8.14837
▁arbeitet	-8.14992
▁Paar	-8.14998
c	-8.15286
▁Bank	-8.15394
▁laufen	-8.15492
▁wie	-8.15716
▁day	-8.16292
▁jumps	-8.16611
▁hands	-8.16829
▁tragen	-8.17043
▁ground	-8.17427
sch	-8.17825
▁Dame	-8.18145
▁große	-8.18173
▁room	-8.18251
on	-8.19034
▁sign	-8.19052
▁ältere	-8.19477
▁performing	-8.19558
ter	-8.19559
▁female	-8.19904
▁Boot	-8.20348
ten	-8.20438
or	-8.20554
▁watch	-8.20691
shirt	-8.20756
▁Wand	-8.20767
▁eating	-8.20903
▁schauen	-8.21193
▁machen	-8.21194
▁guy	-8.21196
▁lächelt	-8.2162
▁suit	-8.21635
▁coat	-8.21686
g	-8.21876
▁baseball	-8.22915
▁mouth	-8.23348
▁brauner	-8.23738
▁horse	-8.24279
el	-8.24407
▁using	-8.24669
▁line	-8.25055
▁football	-8.25108
te	-8.25822
▁store	-8.26104
▁striped	-8.26491
▁ihm	-8.26896
▁orangefarbenen	-8.26935
▁mountain	-8.27013
de	-8.27042
▁purple	-8.27348
▁Bürgersteig	-8.27348
▁band	-8.27487
▁microphone	-8.27803
▁go	-8.28181
▁arbeiten	-8.28719
▁Hose	-8.2917
▁toward	-8.30107
haired	-8.30408
▁Fußball	-8.3057
▁zeigt	-8.30574
▁uniform	-8.30807
▁halten	-8.31159
▁enjoy	-8.31516
▁sieht	-8.31516
▁train	-8.31842
▁Young	-8.31989
▁drei	-8.31989
▁spricht	-8.31989
▁unterhalten	-8.31995
▁rot	-8.32323
▁liest	-8.32497
▁runs	-8.32599
▁under	-8.32623
▁Auto	-8.3273
▁past	-8.32748
z	-8.32757
ar	-8.33139
▁junges	-8.33278
▁rosa	-8.33431
▁blau	-8.33523
et	-8.33792
▁tennis	-8.33909
▁sunglasses	-8.34393
▁reading	-8.34468
▁three	-8.35864
▁Haaren	-8.35915
▁M	-8.36016
▁clothing	-8.3604
▁ver	-8.36658
▁There	-8.37477
▁Gesicht	-8.3834
▁Pferd	-8.3849
▁Tag	-8.38532
ischen	-8.38752
▁basketball	-8.38885
▁toy	-8.38916
▁Sonnenbrille	-8.38943
▁Helm	-8.39003
▁Holz	-8.39245
▁ocean	-8.39382
ic	-8.39494
▁show	-8.39547
re	-8.39695
▁helmet	-8.3973
▁players	-8.40121
▁Bild	-8.40188
▁watches	-8.40545
▁dur	-8.40938
▁its	-8.41173
▁On	-8.41295
▁work	-8.41384
ur	-8.41428
▁Hosen	-8.41459
▁restaurant	-8.41993
ern	-8.42019
▁schwarze	-8.42138
▁climbing	-8.42142
▁Sand	-8.42516
▁kids	-8.42977
▁again	-8.43028
▁se	-8.43365
▁window	-8.43994
ers	-8.44155
se	-8.44311
▁Restaurant	-8.44654
▁skateboard	-8.45136
▁elder	-8.45173
▁sun	-8.45265
at	-8.4556
▁try	-8.45605
▁Felsen	-8.45746
▁team	-8.46026
▁dancing	-8.46263
us	-8.46397
▁Baum	-8.46701
▁chair	-8.46784
ri	-8.46815
▁singt	-8.46839
▁grauen	-8.46886
▁K	-8.46984
▁throw	-8.47528
▁ihnen	-8.48125
▁rides	-8.48782
den	-8.49115
▁jump	-8.49355
▁ab	-8.4951
▁Mantel	-8.49606
▁Spielzeug	-8.49609
▁Mikrofon	-8.50174
der	-8.50395
it	-8.50679
▁Fenster	-8.50745
▁outdoor	-8.5076
▁posiert	-8.5132
▁floor	-8.51322
▁posing	-8.51323
▁Band	-8.51362
▁blonde	-8.51379
▁wooden	-8.51514
▁all	-8.5155
▁darauf	-8.51898
▁about	-8.51913
▁hav	-8.51972
▁U	-8.51986
▁Shorts	-8.52497
▁cap	-8.52559
tting	-8.52788
▁klettert	-8.53064
▁s	-8.53099
▁covered	-8.53228
▁grüne	-8.53344
▁Wald	-8.53644
▁führt	-8.53653
▁bag	-8.54146
▁trees	-8.54241
▁befindet	-8.54254
▁waiting	-8.54578
▁swimming	-8.54844
▁or	-8.54993
▁weiß	-8.55291
▁colorful	-8.55458
▁B	-8.55728
▁Spiel	-8.55777
▁bar	-8.56303
▁light	-8.56312
as	-8.56993
▁Meer	-8.57145
▁construction	-8.57258
▁cart	-8.5726
ng	-8.57433
"	-8.57624
▁fence	-8.57713
▁hill	-8.57867
his	-8.58147
▁Motorrad	-8.5848
▁workers	-8.58527
▁very	-8.58662
▁"	-8.58736
▁Berg	-8.58738
▁pull	-8.5911
▁ice	-8.5913
▁wirft	-8.5915
ro	-8.59157
▁Arbeiter	-8.59233
▁busy	-8.59873
▁blauer	-8.601
▁Weg	-8.60381
▁singing	-8.6048
▁Das	-8.60925
▁Woman	-8.60995
▁sehr	-8.61006
▁bus	-8.61039
▁lean	-8.61041
▁gekleideter	-8.61138
▁Haar	-8.61389
kleidung	-8.61449
▁truck	-8.61677
oder	-8.61851
▁rennen	-8.61867
▁schwarzem	-8.61876
▁Pullover	-8.62282
▁high	-8.62298
▁Raum	-8.62919
lo	-8.6304
▁catch	-8.63481
▁Spieler	-8.63964
▁cellphone	-8.64221
▁essen	-8.64301
▁H	-8.64839
▁brick	-8.64879
▁einige	-8.65266
▁Men	-8.65319
▁tan	-8.65336
▁book	-8.65829
▁Anzug	-8.66238
ig	-8.66509
ol	-8.66712
▁ride	-8.66854
▁paper	-8.66877
▁Wiese	-8.66879
▁zum	-8.66978
▁laying	-8.67198
▁open	-8.67408
▁mehrere	-8.67557
▁anderer	-8.67963
▁bright	-8.68165
▁wartet	-8.68236
▁g	-8.68458
bereitet	-8.68556
▁langen	-8.68665
ive	-8.68805
▁clothes	-8.68954
▁Blumen	-8.69038
▁stick	-8.69284
▁roter	-8.69311
▁she	-8.69419
▁b	-8.6954
▁path	-8.69604
▁Frisbee	-8.69608
▁kitchen	-8.6961
▁Bluse	-8.6961
▁market	-8.69614
▁isst	-8.69715
▁Trikot	-8.70025
▁werden	-8.70304
ion	-8.70378
▁E	-8.70445
▁inside	-8.70567
▁c	-8.70598
▁posieren	-8.71004
▁metal	-8.71004
▁river	-8.71004
▁making	-8.71005
▁piece	-8.71049
▁springen	-8.71134
▁C	-8.71207
▁viele	-8.71262
▁track	-8.71402
▁get	-8.71417
▁grassy	-8.71468
▁beard	-8.71528
▁Arm	-8.72037
▁umbrella	-8.72126
▁outfit	-8.7216
▁gestreiften	-8.72252
▁Kindern	-8.72322
▁motorcycle	-8.72845
▁shop	-8.73125
▁Oberkörper	-8.73131
▁Stuhl	-8.73131
▁perform	-8.73197
▁re	-8.73603
▁big	-8.73869
▁body	-8.7391
▁stone	-8.73955
▁full	-8.74205
▁bunte	-8.74269
▁swing	-8.74341
▁Schild	-8.74442
▁asiatische	-8.74557
▁belebte	-8.74576
▁takes	-8.7461
▁zw	-8.74655
▁Handy	-8.75154
▁Hügel	-8.75305
▁Mütze	-8.75307
▁night	-8.75308
▁voller	-8.75445
▁Fünf	-8.76041
▁Viele	-8.76041
ie	-8.76348
▁ready	-8.76801
il	-8.77129
▁Männern	-8.77237
ut	-8.77416
▁tanzen	-8.77562
▁run	-8.7764
▁others	-8.77792
▁W	-8.78168
▁Buch	-8.78341
ra	-8.78477
▁Fluss	-8.79037
▁betrachtet	-8.79037
▁warten	-8.79044
▁tank	-8.79119
▁In	-8.79422
is	-8.79556
▁sweater	-8.79824
▁hard	-8.80571
▁Radfahrer	-8.80574
ige	-8.80642
colored	-8.80803
▁board	-8.80962
▁photo	-8.81345
▁lake	-8.8135
▁Rennen	-8.81457
S	-8.82045
▁Bauarbeiter	-8.82127
▁schläft	-8.82913
▁trick	-8.82932
▁arm	-8.83569
▁Stock	-8.83712
▁zieht	-8.83773
▁house	-8.83787
▁wo	-8.83945
▁vo	-8.83976
▁hats	-8.84
▁painting	-8.84202
Five	-8.84377
▁Football	-8.8454
▁oben	-8.8463
▁surround	-8.85289
▁Küche	-8.85314
▁above	-8.85314
▁Maul	-8.85319
▁alter	-8.85358
v	-8.86067
▁lehnt	-8.86127
▁reitet	-8.86127
▁dance	-8.86502
▁shirts	-8.86784
▁so	-8.87079
▁Seil	-8.87131
▁Kleinkind	-8.87384
▁Händen	-8.87635
▁wave	-8.87722
▁vest	-8.87724
▁Fuß	-8.87765
▁beobachtet	-8.87773
▁Leuten	-8.87901
ist	-8.88424
▁backpack	-8.88558
▁miteinander	-8.89067
▁See	-8.89173
▁kick	-8.89207
▁snowy	-8.89229
ö	-8.89441
▁Rucksack	-8.89446
▁object	-8.89446
▁shopping	-8.89455
▁w	-8.89503
looking	-8.89636
▁Bäumen	-8.89729
▁worker	-8.89784
▁music	-8.90151
▁paar	-8.90294
▁tanzt	-8.90294
▁beside	-8.90328
▁braune	-8.90599
▁push	-8.91705
▁Zaun	-8.92011
id	-8.92024
▁Sch	-8.92134
▁un	-8.92245
▁Zug	-8.9296
▁es	-8.92994
▁Bus	-8.93204
▁braun	-8.93365
weißer	-8.93433
▁uniforms	-8.93433
▁p	-8.9368
▁machine	-8.93757
▁crowded	-8.93777
▁pole	-8.9381
▁G	-8.93864
▁smiles	-8.9388
▁bereit	-8.94388
▁Metall	-8.94576
▁gear	-8.94642
▁befinden	-8.94642
▁männliche	-8.94642
▁schiebt	-8.94642
▁schneebedeckte	-8.94642
▁toddler	-8.94644
▁event	-8.9466
ny	-8.95214
be	-8.95505
▁kid	-8.95515
▁haben	-8.95536
▁drinking	-8.96193
▁Haus	-8.96332
▁outdoors	-8.96413
▁Gewässer	-8.96436
▁Schwimmbecken	-8.96437
▁phone	-8.96437
▁adults	-8.96482
▁pass	-8.96898
▁gegen	-8.97379
▁Rücken	-8.97447
ft	-8.97448
▁short	-8.97471
▁many	-8.97678
▁da	-8.97687
▁set	-8.97865
▁k	-8.97973
▁Seite	-8.98248
▁orangefarbene	-8.98263
▁plai	-8.98264
▁sch	-8.98464
▁Basketball	-8.99037
▁Markt	-8.99182
▁Welle	-8.99184
▁fountain	-8.99189
▁Familie	-8.99191
▁gathered	-8.99321
out	-8.9937
▁f	-9.00084
▁umgeben	-9.00131
▁view	-9.00187
▁costume	-9.00294
▁hanging	-9.00454
▁bet	-9.00499
▁kurzen	-9.00762
im	-9.00864
▁Treppe	-9.01056
▁prepare	-9.01067
▁subway	-9.01067
▁bridge	-9.01068
▁African	-9.01089
li	-9.01099
▁lot	-9.01653
▁lächeln	-9.01909
hair	-9.01918
▁R	-9.0194
age	-9.01941
▁Eis	-9.0199
▁fire	-9.02001
▁family	-9.02019
▁Papier	-9.02019
igen	-9.02914
▁preparing	-9.0298
▁karierte	-9.03018
▁rope	-9.032
▁Diese	-9.03317
▁flowers	-9.0347
▁herunter	-9.03815
▁Reihe	-9.03951
▁verkauft	-9.03951
▁gerade	-9.03952
▁versammelt	-9.03956
Bahn	-9.04062
▁gelbe	-9.04077
▁arms	-9.04141
▁freie	-9.04246
▁Straßen	-9.04628
▁take	-9.04642
▁mitten	-9.04779
▁Geschäft	-9.04891
▁police	-9.04922
▁attempt	-9.04932
▁computer	-9.04932
▁beautiful	-9.04933
▁forest	-9.04967
▁hockey	-9.04979
▁away	-9.04984
▁sleeping	-9.04994
▁like	-9.05142
▁Musik	-9.05281
▁steps	-9.05322
▁trinkt	-9.05922
▁Children	-9.05922
▁graffiti	-9.05923
▁after	-9.05936
▁does	-9.06004
▁clean	-9.06189
▁v	-9.06434
▁fishing	-9.06714
ul	-9.06797
ab	-9.06901
▁appear	-9.06922
▁adult	-9.0723
▁Schwarz	-9.07932
▁Teenager	-9.07946
▁pose	-9.08311
weißen	-9.08367
▁D	-9.08367
▁rosafarbenen	-9.08411
▁ihn	-9.08576
pe	-9.08881
▁Sport	-9.08953
▁four	-9.08961
▁asian	-9.08981
▁schneidet	-9.09001
▁hängt	-9.09064
▁fish	-9.09175
▁gekleidet	-9.09328
▁Ma	-9.09746
▁guys	-9.09975
▁Richtung	-9.09983
ber	-9.10843
▁Be	-9.1092
▁telefoniert	-9.11025
▁stairs	-9.11026
▁zur	-9.11417
▁Decke	-9.11677
▁Sprung	-9.12076
▁Zeitung	-9.12103
▁spazieren	-9.12134
▁Wagen	-9.12142
ll	-9.12575
▁shoes	-9.12752
ine	-9.13015
▁malt	-9.13145
▁fangen	-9.13146
▁shirtless	-9.1327
▁graue	-9.13359
▁selling	-9.13534
▁putt	-9.13838
▁American	-9.13897
▁star	-9.14009
▁teil	-9.1404
▁Ski	-9.14187
▁setting	-9.1426
▁tall	-9.14269
▁nimmt	-9.14297
▁Stein	-9.14412
▁glass	-9.15196
▁number	-9.15304
▁schwimmt	-9.15304
▁Some	-9.15306
▁sonnige	-9.15311
▁whi	-9.15366
▁bath	-9.15367
▁gelb	-9.154
▁St	-9.15421
ve	-9.15965
chen	-9.16051
▁alte	-9.16235
▁großer	-9.16291
▁Sonne	-9.16403
▁racing	-9.16403
▁Geländer	-9.16477
▁Zuschauer	-9.16573
▁Fußballspieler	-9.16617
ween	-9.1664
▁de	-9.1691
▁Autos	-9.16957
▁com	-9.16959
▁slide	-9.17208
▁drink	-9.17215
ment	-9.1742
▁blicken	-9.17514
▁cowboy	-9.17514
▁Kopfbedeckung	-9.17514
▁Brücke	-9.17514
▁someone	-9.17538
▁schlägt	-9.17548
▁corner	-9.17557
▁Computer	-9.17558
▁wood	-9.17628
▁Hände	-9.17699
▁Weste	-9.17709
▁L	-9.18351
▁ramp	-9.1864
▁Mutter	-9.18641
▁hinauf	-9.18642
▁both	-9.18642
▁parade	-9.18646
▁match	-9.18689
▁flower	-9.19216
▁Bart	-9.19323
▁Baseball	-9.19389
▁Schal	-9.19503
▁rocks	-9.19722
▁Shirt	-9.19773
▁Himmel	-9.19774
▁Publikum	-9.19774
▁public	-9.19774
▁volleyball	-9.19774
▁fliegt	-9.19774
▁sweatshirt	-9.19777
▁rain	-9.19794
▁party	-9.19923
▁fest	-9.19988
▁Tasche	-9.20002
▁fe	-9.20192
▁can	-9.20326
▁flag	-9.20366
aged	-9.20623
▁have	-9.20785
▁Platz	-9.20923
▁equipment	-9.20923
▁kämpfen	-9.20923
▁ladies	-9.20923
▁hebt	-9.20923
▁tent	-9.20932
▁couch	-9.20933
▁co	-9.2096
▁chairs	-9.21034
▁laughing	-9.2118
▁aussehende	-9.21267
▁Ge	-9.21349
▁Graffiti	-9.21517
▁trail	-9.21785
uch	-9.22025
▁grün	-9.22065
▁pick	-9.22098
▁statue	-9.22242
▁use	-9.22277
up	-9.22984
▁display	-9.23262
▁dunklen	-9.23459
▁hit	-9.23501
▁instruments	-9.23531
ieren	-9.23709
▁plastic	-9.24453
▁Rock	-9.24457
▁winter	-9.24458
iert	-9.24549
ag	-9.24741
B	-9.24802
▁Erwachsene	-9.24883
▁hohen	-9.2489
▁vier	-9.25052
▁cross	-9.25085
gen	-9.25186
▁concrete	-9.25658
▁playground	-9.25658
▁reach	-9.25669
▁Spielplatz	-9.2567
▁Stück	-9.25675
▁cup	-9.25676
▁Hof	-9.25795
▁gestreifte	-9.2606
▁woods	-9.263
ver	-9.26456
▁verschiedene	-9.26736
▁dock	-9.26886
▁door	-9.26895
▁Gebäudes	-9.26907
▁Hemden	-9.27547
▁poses	-9.27713
▁Auf	-9.28048
▁Glas	-9.28109
▁midair	-9.28112
▁yard	-9.28112
▁mittlere	-9.28112
▁zuschauen	-9.2815
▁Mitte	-9.28194
▁bowl	-9.28663
▁asiatischer	-9.2883
▁skirt	-9.28888
ct	-9.28961
▁Schirm	-9.28978
▁ski	-9.29086
▁carrie	-9.29199
▁Zelt	-9.29362
▁shovel	-9.29362
▁attire	-9.29362
▁Bier	-9.29378
▁Schaukel	-9.2939
ling	-9.29413
ste	-9.29418
▁net	-9.29458
▁beer	-9.30039
kt	-9.30372
▁pictures	-9.3047
▁davon	-9.30627
▁Regen	-9.30633
man	-9.30948
▁dunkelhäutige	-9.3191
▁genießt	-9.3191
▁nackte	-9.3191
▁überqueren	-9.3191
▁Mauer	-9.3191
▁sky	-9.31913
▁Dach	-9.31934
hr	-9.32186
▁skate	-9.32818
▁paint	-9.33111
just	-9.33202
▁Beton	-9.33203
▁Jemand	-9.33208
▁Ufer	-9.33209
▁apron	-9.33209
▁vendor	-9.33211
▁Blick	-9.33211
▁what	-9.33218
▁Fisch	-9.33247
▁seated	-9.33302
fahrer	-9.33347
auf	-9.3335
ack	-9.33369
ff	-9.33456
▁O	-9.33513
▁reads	-9.33635
T	-9.33654
▁cutt	-9.33696
▁blondes	-9.33757
rad	-9.33859
▁bed	-9.33896
spieler	-9.34092
▁Sp	-9.34309
ick	-9.34514
▁benutzt	-9.34524
▁cream	-9.34524
▁distance	-9.34524
▁left	-9.34524
▁home	-9.34526
▁lacht	-9.34531
▁grill	-9.34558
▁tritt	-9.34762
E	-9.3499
A	-9.34993
▁Kunststück	-9.3534
▁Zuschauern	-9.3565
▁Gemüse	-9.35857
▁Feuer	-9.35857
▁Surfer	-9.35857
▁school	-9.35857
▁Pool	-9.35865
▁turn	-9.36033
▁Alters	-9.36104
▁cooking	-9.36185
halb	-9.36318
▁kneel	-9.36326
▁wear	-9.36408
▁sp	-9.36635
▁do	-9.36836
▁st	-9.37046
▁Rasen	-9.37209
▁Little	-9.37209
▁Sofa	-9.37209
▁newspaper	-9.37209
▁öffentliche	-9.37209
▁where	-9.37209
▁Fahrzeug	-9.37209
▁cliff	-9.3721
▁Menge	-9.37277
▁Augen	-9.37375
▁nahe	-9.37473
▁rider	-9.37596
th	-9.37874
top	-9.38084
▁box	-9.38514
geschäft	-9.38569
▁Lebensmittel	-9.38579
▁Zigarette	-9.38579
▁Schürze	-9.38579
▁cigarette	-9.38579
▁unterhält	-9.38588
▁station	-9.38588
▁städtische	-9.38609
ke	-9.3869
▁wash	-9.38787
ish	-9.38797
▁works	-9.38948
▁Tor	-9.38949
▁gather	-9.3895
▁Mannes	-9.39278
▁art	-9.39389
pp	-9.3945
▁Mensch	-9.39651
▁instrument	-9.3979
▁lila	-9.39824
ant	-9.39908
lich	-9.3995
▁zusieht	-9.39967
▁Girl	-9.39968
▁court	-9.39968
▁fix	-9.3997
▁Nummer	-9.39971
▁edge	-9.39974
▁stop	-9.40012
▁Boy	-9.40041
▁vests	-9.40051
▁Baseballspieler	-9.40064
▁Mannschaft	-9.40071
▁offene	-9.40102
▁alten	-9.40605
▁Bar	-9.40623
ate	-9.40803
▁bikes	-9.4088
▁cut	-9.40915
ot	-9.41142
▁bags	-9.41198
pa	-9.41255
zu	-9.41356
▁gleich	-9.41376
▁blanket	-9.41377
▁zuschaut	-9.41422
▁nebeneinander	-9.41461
▁crossing	-9.42365
▁kurz	-9.4242
▁Uniform	-9.42457
▁jersey	-9.4251
▁make	-9.42539
▁lässt	-9.42805
▁scarf	-9.42805
▁structure	-9.42805
▁außer	-9.42805
▁right	-9.42807
anzug	-9.42819
▁mask	-9.42821
ti	-9.42823
j	-9.42842
au	-9.42953
▁zusehen	-9.42989
▁Basketballspiel	-9.4314
▁wait	-9.43176
▁bedeckt	-9.43427
▁Typ	-9.4387
▁no	-9.4395
elt	-9.44152
▁Gegenstand	-9.44254
▁Women	-9.44254
▁nearby	-9.44254
▁Grill	-9.44257
▁nicht	-9.4426
▁nachts	-9.44277
▁snowboarder	-9.44368
▁filled	-9.44395
ation	-9.4455
ball	-9.44862
▁skateboarder	-9.45085
lying	-9.45641
▁driving	-9.45724
▁versuchen	-9.45724
▁pile	-9.45727
▁Cowboy	-9.45739
▁Mund	-9.45743
▁Bett	-9.45744
▁hinten	-9.45744
▁place	-9.45824
weiße	-9.46296
▁flip	-9.46359
▁mountains	-9.46828
▁Herr	-9.46832
ort	-9.46947
▁bottle	-9.46979
▁fruit	-9.46983
▁smile	-9.47008
▁l	-9.47031
▁N	-9.47064
▁sort	-9.47156
▁check	-9.47191
▁shore	-9.47213
▁Group	-9.47217
▁beobachten	-9.47217
▁mother	-9.47217
▁scheint	-9.47217
▁leaves	-9.47251
ous	-9.47252
arious	-9.47269
▁bull	-9.47281
▁gibt	-9.47328
▁führen	-9.47368
▁wheel	-9.47368
▁großes	-9.47392
▁treten	-9.47446
che	-9.47526
cht	-9.47695
▁weg	-9.48155
▁Musiker	-9.48183
▁friends	-9.48207
▁bowling	-9.48208
▁V	-9.48281
▁lächelnde	-9.48303
os	-9.48356
▁hell	-9.48586
▁thi	-9.48654
▁Outfit	-9.48657
▁new	-9.48669
▁Rampe	-9.48733
▁Wanderer	-9.48735
▁boots	-9.48736
▁trinken	-9.48765
artial	-9.48925
▁wet	-9.49213
tur	-9.49274
▁Flagge	-9.49326
▁Art	-9.49354
M	-9.49394
teil	-9.49578
ka	-9.49881
▁parked	-9.49953
▁horses	-9.5007
▁vehicle	-9.50085
▁Garten	-9.5027
▁fängt	-9.5027
▁goggles	-9.5027
▁kniet	-9.5027
▁raucht	-9.50271
▁Trick	-9.50271
▁Rodeo	-9.50271
▁Maschine	-9.50305
▁Armen	-9.50316
▁block	-9.50329
▁drums	-9.5037
▁Snowboarder	-9.50441
▁desk	-9.50445
▁fl	-9.50641
▁beide	-9.50711
ell	-9.50827
▁Stange	-9.50868
stand	-9.50897
▁Fotos	-9.51067
▁gold	-9.51225
▁liegen	-9.5138
▁talks	-9.51656
wagen	-9.51704
▁betrachten	-9.51833
▁bikini	-9.51833
▁concert	-9.51833
▁ladder	-9.51833
▁Ferne	-9.51833
▁Läufer	-9.51834
▁shot	-9.51837
▁time	-9.51923
▁Indian	-9.51945
▁verschneiten	-9.52034
▁Stufen	-9.52049
▁painted	-9.52069
▁Nacht	-9.52155
▁buildings	-9.52247
▁La	-9.52534
ier	-9.5259
▁railing	-9.5261
▁orangen	-9.52923
▁J	-9.53332
x	-9.53373
▁Gehsteig	-9.5342
▁coffee	-9.5342
▁smoking	-9.5342
▁Weiß	-9.53428
▁break	-9.53511
▁surfer	-9.53614
▁flying	-9.53734
▁Kleine	-9.54004
op	-9.54011
▁rocky	-9.54078
▁dresses	-9.54125
▁giv	-9.54191
weg	-9.54262
▁eyes	-9.54332
ert	-9.54891
▁bucket	-9.54922
▁Obst	-9.55025
▁roof	-9.55026
▁conversation	-9.55033
▁safety	-9.55033
▁bunch	-9.55034
▁Old	-9.55036
▁Eimer	-9.55037
▁Veranstaltung	-9.55083
▁sitzende	-9.55225
he	-9.5553
▁ent	-9.5566
ping	-9.55669
▁Trikots	-9.55781
tt	-9.56264
▁gentleman	-9.56673
▁practicing	-9.56673
▁purse	-9.56673
▁bicyclist	-9.56675
▁spectators	-9.56678
▁Tennisball	-9.5668
▁meal	-9.56705
▁unten	-9.56727
ce	-9.56742
▁swinging	-9.56884
bei	-9.569
▁arts	-9.57086
▁gloves	-9.57208
▁einander	-9.57438
tisch	-9.57483
▁flags	-9.57484
▁rail	-9.57526
Spieler	-9.57785
▁Tennis	-9.58093
▁Kostüm	-9.58188
▁Sonnenuntergang	-9.58339
▁competition	-9.58339
▁different	-9.58339
▁empty	-9.58339
▁opposi	-9.58339
▁Braut	-9.58339
▁Leiter	-9.58344
▁New	-9.58348
▁waves	-9.58442
▁listening	-9.58502
▁I	-9.58588
▁cars	-9.58613
▁Laden	-9.58635
▁diese	-9.58643
ei	-9.58978
▁skier	-9.59031
board	-9.59098
lt	-9.59443
ken	-9.59587
▁lachen	-9.59601
▁jungen	-9.59633
▁costumes	-9.59725
▁balloon	-9.60026
▁Aufschrift	-9.60034
▁Statue	-9.60034
▁greift	-9.60034
▁scene	-9.60035
▁float	-9.60038
▁Land	-9.60041
▁Skifahrer	-9.60048
▁cake	-9.60049
hört	-9.60091
▁tie	-9.60108
▁zurück	-9.60108
▁rutscht	-9.60131
echs	-9.60164
▁hole	-9.60273
▁lächelnd	-9.60365
▁items	-9.60528
weiß	-9.60607
ill	-9.61009
▁lay	-9.61026
▁Pa	-9.61115
▁Rad	-9.61154
▁Bikini	-9.61757
▁Brunnen	-9.61758
▁audience	-9.61758
▁fotografiert	-9.61758
▁hilft	-9.61758
▁scooter	-9.61758
▁spray	-9.61758
▁Netz	-9.61758
▁Vater	-9.61758
▁lawn	-9.61759
▁plate	-9.61762
▁surfboard	-9.61763
▁base	-9.61828
▁blonden	-9.61956
▁chas	-9.61966
▁lange	-9.62013
ein	-9.62066
▁Kleidern	-9.6215
▁parking	-9.62284
pf	-9.62339
▁skateboarding	-9.62642
▁help	-9.62688
▁younger	-9.62691
äu	-9.62834
▁Tür	-9.63124
▁Polizist	-9.63134
▁put	-9.63161
▁Schüler	-9.63513
▁rodeo	-9.63513
▁among	-9.63513
▁counter	-9.63513
▁Someone	-9.63519
▁bärtiger	-9.63556
▁onlookers	-9.63591
▁surft	-9.63656
▁Hüten	-9.63706
▁lit	-9.63919
▁there	-9.64296
▁golden	-9.64597
▁slid	-9.64682
ight	-9.64865
ock	-9.65013
▁leaps	-9.65051
▁beiden	-9.65076
▁Bei	-9.6509
amp	-9.65198
▁platform	-9.65298
▁unbefestigte	-9.65298
▁überquert	-9.65298
▁silver	-9.65302
▁artist	-9.65317
▁roll	-9.6532
▁Motorradfahrer	-9.65324
▁basket	-9.65355
▁leuchtend	-9.65393
▁tattoo	-9.65414
▁hot	-9.65424
▁werfen	-9.65432
▁tire	-9.65438
▁mat	-9.6544
▁stroller	-9.65513
▁pointing	-9.65594
▁Polizisten	-9.65685
▁Kostümen	-9.65705
▁vegetables	-9.65788
▁Haare	-9.65798
▁class	-9.66023
fore	-9.66032
ang	-9.66163
bar	-9.66193
L	-9.66268
▁drinks	-9.6627
▁gathering	-9.66368
▁viel	-9.66469
all	-9.66483
▁He	-9.6649
▁grüner	-9.66772
▁tradition	-9.67111
▁Kajak	-9.67117
▁collar	-9.67117
▁kayak	-9.67117
▁versammeln	-9.67117
▁cement	-9.67117
▁facing	-9.67119
▁Sweatshirt	-9.67141
▁feet	-9.67153
▁Vor	-9.67153
▁bird	-9.67228
▁legt	-9.67298
▁gut	-9.67405
laden	-9.67888
bereiten	-9.67962
P	-9.68095
▁sports	-9.68645
einander	-9.68678
▁Re	-9.68906
▁Rutsche	-9.68968
▁competing	-9.68968
▁gemeinsam	-9.68968
▁violin	-9.68968
▁Korb	-9.68969
▁wedding	-9.68969
▁Six	-9.68978
▁Leine	-9.68978
▁Rot	-9.68985
▁lap	-9.68999
▁Volleyball	-9.69107
▁nehmen	-9.69161
▁Roller	-9.69222
ew	-9.69223
▁Damen	-9.69468
▁speaking	-9.69599
▁gelbem	-9.69694
▁reden	-9.69732
ty	-9.69897
F	-9.69971
▁row	-9.7005
▁biker	-9.70356
▁Arme	-9.7039
▁Mo	-9.70451
platz	-9.70635
▁Arbeit	-9.70649
▁bicycles	-9.70835
▁business	-9.70855
▁classroom	-9.70855
▁lesen	-9.70858
▁rothaarige	-9.70859
▁laptop	-9.70864
▁ganz	-9.70866
ther	-9.70918
▁kommt	-9.7098
▁amerikanische	-9.70981
▁huge	-9.7102
eln	-9.71028
▁Kids	-9.71106
und	-9.71167
▁Team	-9.71187
ler	-9.71272
iz	-9.71716
rau	-9.71792
▁son	-9.71828
K	-9.71924
ub	-9.72011
▁jackets	-9.72042
▁talk	-9.72182
▁Regenschirm	-9.72393
▁Arbeits	-9.72394
way	-9.72504
▁fa	-9.72643
aus	-9.72775
▁Pfad	-9.72778
▁clown	-9.72778
▁genießen	-9.72778
▁jüngere	-9.72778
▁Parade	-9.72778
▁schreibt	-9.72779
▁Waren	-9.7278
▁Ende	-9.72781
▁lift	-9.72826
▁screen	-9.72838
▁guckt	-9.72939
icht	-9.72984
▁animal	-9.72992
ap	-9.73034
▁stellt	-9.73114
▁surfing	-9.73385
▁Da	-9.73445
▁students	-9.73512
▁was	-9.73536
▁sings	-9.73544
innen	-9.7356
▁Getränk	-9.73653
spiel	-9.73676
if	-9.74054
▁climbs	-9.74109
▁Geschäfts	-9.74229
▁Schutzhelm	-9.74359
▁Tanz	-9.7441
▁Westen	-9.74421
▁Schlagzeug	-9.74451
▁close	-9.74502
▁suits	-9.74685
▁Fa	-9.74713
▁Mikrophon	-9.74739
▁leeren	-9.74739
▁mirror	-9.74739
▁canoe	-9.7474
▁military	-9.74741
▁bride	-9.74785
▁alley	-9.74864
▁Soldaten	-9.74901
▁lilafarbene	-9.74943
▁Stühlen	-9.74974
▁leap	-9.75165
▁kissing	-9.75321
▁helmets	-9.75376
R	-9.75625
▁rosafarbene	-9.75808
▁Pferde	-9.75815
iger	-9.7582
▁give	-9.75822
mitten	-9.75891
▁Umgebung	-9.76739
▁Vogel	-9.76739
▁electric	-9.76739
▁ohne	-9.76739
▁writing	-9.76739
▁York	-9.76739
▁same	-9.76741
▁streckt	-9.76741
▁Wellen	-9.76758
▁Baustelle	-9.76763
▁walkway	-9.76778
▁end	-9.76828
▁teams	-9.77009
▁shoulder	-9.77042
▁fighting	-9.77334
▁asiatischen	-9.77582
bahn	-9.77598
▁voll	-9.77737
▁beige	-9.77806
▁warm	-9.78101
ze	-9.78288
sten	-9.78299
go	-9.78712
bank	-9.78721
▁Kampfsport	-9.78773
▁country	-9.78775
▁Krawatte	-9.7878
▁schwingt	-9.7878
▁sprechen	-9.7878
▁kaufen	-9.7878
▁chef	-9.78781
▁weibliche	-9.78781
▁sunset	-9.78782
▁gegenüber	-9.78784
▁Badeanzug	-9.78785
▁nur	-9.78812
▁cat	-9.78837
▁Konzert	-9.78879
iant	-9.79092
▁gun	-9.79134
▁sport	-9.79149
▁afrikanische	-9.79174
▁runner	-9.79183
▁riesigen	-9.79241
▁Erwachsener	-9.79411
schen	-9.7944
▁chase	-9.79443
▁allein	-9.79763
▁Schuhen	-9.79845
▁Instrument	-9.79969
▁Ko	-9.80086
po	-9.80274
ak	-9.80676
less	-9.80779
▁hin	-9.80815
ck	-9.80839
▁Gegend	-9.80863
▁Laptop	-9.80863
▁barefoot	-9.80863
▁urban	-9.80863
▁waving	-9.80863
gerät	-9.80864
▁Sohn	-9.80864
▁Parkplatz	-9.809
▁shav	-9.8095
bo	-9.81005
▁sc	-9.81049
▁Handschuhen	-9.81057
lu	-9.81078
▁we	-9.81139
▁waits	-9.81245
▁Uniformen	-9.8142
▁Bu	-9.81444
cal	-9.81466
enden	-9.81545
▁Erwachsenen	-9.81574
tro	-9.81982
tries	-9.82082
tet	-9.82297
isch	-9.8252
▁Wa	-9.82569
▁leg	-9.82605
▁Ab	-9.82693
kostüm	-9.82991
▁Party	-9.82991
▁Straßenecke	-9.82991
▁leash	-9.82991
▁Schreibtisch	-9.82992
▁starrt	-9.82992
▁Straßenrand	-9.82996
▁Stand	-9.83
▁Bereich	-9.83
▁foot	-9.83005
▁Rand	-9.83008
▁marathon	-9.83038
▁Kinderwagen	-9.83123
▁di	-9.83124
▁start	-9.8329
▁pot	-9.83379
▁singen	-9.83402
▁ear	-9.83452
▁land	-9.83541
gt	-9.83695
ich	-9.83699
▁officer	-9.83762
▁Sa	-9.83886
▁alle	-9.83965
▁fun	-9.84021
▁pinkfarbene	-9.84242
▁bald	-9.84323
▁Le	-9.84344
blauen	-9.84728
▁Snowboard	-9.84859
▁Bergen	-9.84954
▁photograph	-9.85094
▁Schoß	-9.85165
▁course	-9.85165
▁gymnast	-9.85165
▁umarmt	-9.85165
▁garden	-9.85165
▁Geländemotorrad	-9.85165
▁Pause	-9.85166
▁cloud	-9.85166
▁schlagen	-9.85167
▁Kanu	-9.85167
▁jagt	-9.85167
▁father	-9.85171
▁mix	-9.85172
▁Base	-9.85172
▁golf	-9.85185
▁Badehose	-9.85191
▁seen	-9.8522
▁Künstler	-9.85232
▁d	-9.85254
▁hoop	-9.85316
we	-9.85331
▁Koch	-9.85413
▁makes	-9.85597
▁swim	-9.85614
▁ange	-9.85637
ure	-9.85653
▁says	-9.85686
▁älteren	-9.85717
do	-9.85816
▁blowing	-9.85976
▁bubbles	-9.86034
▁pinkfarbenen	-9.8614
▁Sie	-9.86465
▁blow	-9.86564
▁Skateboarder	-9.86708
▁sell	-9.86809
▁ma	-9.86989
▁bat	-9.87043
▁gelbes	-9.87116
▁life	-9.87366
▁grasbewachsene	-9.87387
▁repariert	-9.87387
▁Kuchen	-9.87387
▁dunkelhaarige	-9.87387
▁happy	-9.87388
▁leather	-9.87388
▁meat	-9.87405
▁five	-9.87433
▁skating	-9.87476
▁klettern	-9.87476
▁females	-9.87478
▁fast	-9.87556
▁heraus	-9.87579
▁photographer	-9.87725
▁Bau	-9.88204
▁outfits	-9.8831
▁way	-9.88385
▁kurze	-9.88719
▁cloth	-9.88731
▁fallen	-9.8878
▁Co	-9.88803
▁knee	-9.88872
▁Tänzer	-9.89259
▁drive	-9.89286
▁Spiegel	-9.89656
▁Müll	-9.89659
▁Construction	-9.8966
▁Plastik	-9.8966
▁Schatten	-9.8966
▁Telefon	-9.8966
▁Vordergrund	-9.8966
▁foreground	-9.8966
▁gegnerische	-9.8966
▁microscope	-9.8966
▁Schüssel	-9.8966
▁verkaufen	-9.89661
▁alone	-9.89663
▁balloons	-9.89671
▁Br	-9.89742
▁lead	-9.89766
▁Fahrradfahrer	-9.89772
art	-9.89787
▁brightly	-9.89898
▁Jugendlicher	-9.89919
ische	-9.89932
▁roller	-9.89953
▁deck	-9.90291
liche	-9.90374
▁musicians	-9.9061
ß	-9.90644
▁helping	-9.90742
side	-9.90761
▁card	-9.91004
▁sta	-9.91051
▁Schulter	-9.91058
rennen	-9.91105
ade	-9.91145
▁weitere	-9.91296
sitz	-9.91355
▁performer	-9.91445
ted	-9.91645
▁Gebäuden	-9.91675
uff	-9.91696
▁Bahn	-9.91718
gruppe	-9.91725
▁hang	-9.91856
▁log	-9.91886
ok	-9.91928
▁Clown	-9.91985
▁Schlitten	-9.91985
▁Schläger	-9.91985
▁Surfbrett	-9.91985
▁asleep	-9.91985
▁headphones	-9.91985
▁repair	-9.91985
▁stunt	-9.91985
▁putzt	-9.91987
▁sculpture	-9.91987
▁braunhaarige	-9.91988
▁raft	-9.91996
▁gym	-9.91996
▁gegeneinander	-9.92001
▁made	-9.92029
▁Fell	-9.92031
▁Finger	-9.92032
▁desert	-9.92041
▁Blau	-9.92068
▁Kunden	-9.92109
▁signs	-9.92161
▁goal	-9.9227
▁well	-9.92341
▁site	-9.92474
▁Cheerleader	-9.92621
hut	-9.93349
▁legs	-9.93889
▁lights	-9.93913
▁Taschen	-9.9394
▁office	-9.93998
▁mud	-9.94207
▁brush	-9.94249
▁Objekt	-9.94366
▁Mikroskop	-9.94366
▁Schnauze	-9.94366
▁stadium	-9.94366
▁video	-9.94366
▁Overall	-9.94366
▁diving	-9.94366
▁Sandalen	-9.94367
▁Küste	-9.94371
▁sandals	-9.94372
▁balanciert	-9.94374
▁jemandem	-9.94374
▁doorway	-9.94378
▁sled	-9.94398
▁ring	-9.94519
▁musical	-9.94769
▁Geige	-9.94874
▁drawing	-9.94897
ord	-9.949
▁Fahrrädern	-9.94975
▁Es	-9.95313
▁umbrellas	-9.95358
C	-9.95393
▁speak	-9.95411
▁not	-9.95647
fahren	-9.9575
fall	-9.95778
▁ba	-9.95825
▁ob	-9.96207
▁part	-9.96377
▁Fußballspiel	-9.96392
▁bemalt	-9.96432
ue	-9.96467
▁grau	-9.96621
▁drum	-9.9664
▁ru	-9.96658
▁overlook	-9.96727
▁project	-9.96777
markt	-9.96795
▁Marathon	-9.96803
▁Kaffee	-9.96805
▁Büro	-9.96805
▁Chinese	-9.96805
▁Klassenzimmer	-9.96805
▁Mobiltelefon	-9.96805
▁accordion	-9.96805
▁athlete	-9.96805
▁Schaufel	-9.96805
▁beugt	-9.96806
▁Kirche	-9.96806
▁Schiedsrichter	-9.96807
▁winkt	-9.96809
hiking	-9.9681
▁stuff	-9.96816
▁setzt	-9.96819
▁Schlange	-9.96821
▁Licht	-9.96824
▁multicolored	-9.96835
▁Einkaufswagen	-9.96842
▁Flugzeug	-9.96861
▁Footballspieler	-9.96884
▁Stiefeln	-9.96994
▁singer	-9.97016
▁Erde	-9.97046
▁ziehen	-9.97076
▁string	-9.97334
▁Bein	-9.97355
▁Ka	-9.97387
▁anderes	-9.97433
▁falling	-9.97528
bung	-9.97672
▁heads	-9.97687
▁move	-9.97826
▁farbenfrohe	-9.98145
ies	-9.98155
▁Jacken	-9.98217
▁officers	-9.98792
▁climb	-9.98867
▁teenage	-9.98938
ian	-9.99044
▁hellhäutige	-9.99204
ben	-9.99237
▁decorat	-9.99305
▁includ	-9.99305
▁church	-9.99305
▁dreht	-9.99305
▁fällt	-9.99305
▁traffic	-9.99305
▁Zimmer	-9.99305
▁Fleisch	-9.99305
▁shallow	-9.99306
▁booth	-9.99306
▁Felswand	-9.99307
▁Worker	-9.99308
▁Halsband	-9.99308
▁performance	-9.99316
▁Katze	-9.99325
▁eat	-9.99325
lei	-9.99332
▁daughter	-9.99361
haus	-9.99438
dessen	-9.99508
▁h	-9.99557
▁Pferden	-9.99842
▁van	-9.99986
▁swings	-10.0022
kl	-10.0026
ah	-10.0035
▁Bilder	-10.004
▁sticks	-10.0053
Spiel	-10.0053
eck	-10.0058
▁plants	-10.0094
▁skiing	-10.0097
▁hohe	-10.0128
▁fr	-10.0142
▁Schuhe	-10.0159
▁khaki	-10.0174
▁Freunde	-10.0176
▁faces	-10.0181
tasche	-10.0181
▁Fußgänger	-10.0187
▁Gerüst	-10.0187
▁Höhe	-10.0187
▁Karate	-10.0187
▁fünf	-10.0187
▁küssen	-10.0187
▁observe	-10.0187
▁below	-10.0187
▁zeigen	-10.0187
▁reiten	-10.0187
▁digging	-10.0187
▁protect	-10.0187
▁davor	-10.0188
▁BM	-10.019
▁pond	-10.0191
▁bis	-10.0194
▁pal	-10.0205
▁hammer	-10.0209
▁hellbrauner	-10.0222
tag	-10.0224
erin	-10.0227
▁Tasse	-10.0235
stück	-10.0237
grünen	-10.0245
▁hose	-10.0251
▁kn	-10.0254
led	-10.0254
king	-10.0262
▁friend	-10.0296
her	-10.031
▁surf	-10.0313
▁ei	-10.0319
zug	-10.0338
▁me	-10.0346
gel	-10.0411
ausrüstung	-10.0422
jacke	-10.0446
reich	-10.0447
▁Verkehr	-10.045
▁Kreis	-10.045
▁Orange	-10.045
▁Seifenblasen	-10.045
▁aussieht	-10.045
▁küsst	-10.045
▁schmutzige	-10.045
▁Tanktop	-10.045
▁hugging	-10.045
▁erwachsene	-10.045
▁inspect	-10.0451
▁hoodie	-10.0452
▁pier	-10.0453
▁Loch	-10.0454
▁fan	-10.0456
▁Hockey	-10.0457
hi	-10.0458
▁nose	-10.0459
▁Kai	-10.0459
▁upside	-10.0463
▁tunnel	-10.0465
▁Bo	-10.0476
our	-10.0482
▁ho	-10.0483
▁passes	-10.0483
▁chinesische	-10.0501
▁relaxing	-10.0502
▁tables	-10.0504
▁slope	-10.0505
uck	-10.0514
▁indische	-10.0515
ake	-10.0517
▁So	-10.053
▁shoe	-10.055
▁toys	-10.0566
▁redet	-10.0567
▁dass	-10.0578
▁Akkordeon	-10.0604
ug	-10.0625
hand	-10.0631
▁seem	-10.0659
ker	-10.0686
gebäude	-10.071
feld	-10.0712
▁hellbraune	-10.0717
maschine	-10.072
▁Christmas	-10.072
▁Spaß	-10.072
▁Ecke	-10.072
▁geparkt	-10.0721
▁brunette	-10.0721
▁Maske	-10.0721
▁Black	-10.0721
▁flies	-10.0721
▁Spielfeld	-10.0722
▁Dog	-10.0723
▁pour	-10.0724
▁dry	-10.0727
▁Pflanzen	-10.0745
▁sweeping	-10.0756
▁sleeps	-10.0757
▁Reifen	-10.0765
▁Ver	-10.0782
▁dancers	-10.0854
O	-10.0877
▁la	-10.0878
▁pro	-10.0887
▁Bäume	-10.0904
G	-10.0915
▁kiss	-10.0916
▁fight	-10.0918
lf	-10.0919
▁cane	-10.0948
▁mov	-10.0953
▁cow	-10.0965
froamerikanische	-10.0998
▁Lastwagen	-10.0998
▁Stadion	-10.0998
▁Teppich	-10.0998
▁Tochter	-10.0998
▁conversing	-10.0998
▁device	-10.0998
▁stream	-10.0998
▁telescope	-10.0998
▁Mountainbike	-10.0998
▁print	-10.0998
▁Guy	-10.0998
▁Schlamm	-10.0998
▁Teich	-10.0998
▁cafe	-10.0998
▁swimsuit	-10.0998
▁Schwimmbrille	-10.0998
▁Skater	-10.0998
▁Teller	-10.0998
▁Rennstrecke	-10.0998
▁Wüste	-10.0999
▁Stoff	-10.0999
▁teeth	-10.0999
fuß	-10.0999
▁lone	-10.0999
▁neck	-10.0999
▁Handtasche	-10.1005
▁mid	-10.1011
wand	-10.1015
▁rechte	-10.1022
▁loca	-10.1025
▁Oberteilen	-10.1026
▁round	-10.1035
war	-10.1036
▁trunks	-10.1065
▁resting	-10.1073
▁Po	-10.1084
▁schönen	-10.1091
▁plant	-10.1101
▁Schultern	-10.1113
▁fall	-10.1128
gelben	-10.1131
▁bend	-10.1153
▁beleuchtete	-10.117
and	-10.1179
▁Flasche	-10.1187
▁schöne	-10.1189
band	-10.1199
▁Tischen	-10.1217
▁Caf	-10.1232
▁linke	-10.1254
▁Winter	-10.1281
line	-10.1283
▁Unter	-10.1284
▁karate	-10.1284
▁kocht	-10.1284
▁wrestling	-10.1284
▁Hula	-10.1284
▁Trommel	-10.1284
▁jogging	-10.1284
▁Haufen	-10.1284
▁Kappe	-10.1284
▁frame	-10.1284
▁kind	-10.1284
schild	-10.1284
▁gepflasterten	-10.1284
▁infant	-10.1284
▁racket	-10.1284
▁square	-10.1285
▁underneath	-10.1285
▁cold	-10.1285
▁mural	-10.1285
▁stack	-10.1287
▁camp	-10.1288
▁town	-10.1288
▁how	-10.129
▁held	-10.1298
▁fair	-10.1298
▁formal	-10.1303
▁splashing	-10.1303
W	-10.1312
▁balanc	-10.1327
▁name	-10.1342
▁Lad	-10.1342
vi	-10.1368
▁Tier	-10.1381
▁points	-10.1384
ard	-10.1388
▁guard	-10.1396
▁hu	-10.1405
team	-10.1406
▁schwimmen	-10.141
ac	-10.1412
▁type	-10.1413
tier	-10.1465
▁males	-10.1477
▁bu	-10.1487
I	-10.1491
acht	-10.151
roten	-10.1516
mann	-10.1517
▁pin	-10.1529
▁balance	-10.1533
hang	-10.1538
▁stroll	-10.1543
straße	-10.1574
stuhl	-10.1577
▁Balkon	-10.1578
▁Klippe	-10.1578
▁Landschaft	-10.1578
▁Zähne	-10.1578
▁entspannt	-10.1578
▁magazine	-10.1578
▁themselves	-10.1578
▁felsige	-10.1578
▁hula	-10.1578
▁umarmen	-10.1578
Hoop	-10.1578
▁neon	-10.1578
▁unterwegs	-10.1578
▁hängen	-10.1578
▁schaukelt	-10.1578
▁Small	-10.1578
▁Nase	-10.1578
▁Couch	-10.1579
▁lab	-10.1579
▁curly	-10.158
▁live	-10.1581
▁straw	-10.1582
partment	-10.1582
▁Parkbank	-10.1583
▁tief	-10.1587
▁asiatisch	-10.1588
▁finish	-10.1592
▁nap	-10.1616
ift	-10.163
▁ex	-10.1637
▁Farben	-10.1647
len	-10.1652
▁hellen	-10.1654
ble	-10.168
▁vi	-10.1686
▁eye	-10.1689
▁ro	-10.1697
▁image	-10.1699
▁cyclist	-10.1706
▁gate	-10.1709
▁Freunden	-10.1717
▁hiker	-10.1722
▁wunderschöne	-10.1723
▁Schwimmer	-10.1724
▁ra	-10.1732
▁post	-10.1736
▁pan	-10.1781
schwarzer	-10.1804
bau	-10.1819
▁shoulders	-10.1835
hen	-10.185
▁present	-10.188
fahrzeug	-10.1881
▁Blatt	-10.1881
▁Gasse	-10.1881
▁Gegenstände	-10.1881
▁Trampolin	-10.1881
▁circle	-10.1881
▁crosswalk	-10.1881
▁dinner	-10.1881
▁heavy	-10.1881
▁picnic	-10.1881
▁produce	-10.1881
▁trampoline	-10.1881
▁wetsuit	-10.1881
▁ärmellose	-10.1881
▁clear	-10.1881
▁nice	-10.1881
▁carnival	-10.1881
▁button	-10.1881
▁design	-10.1881
▁damit	-10.1881
▁bedient	-10.1881
▁deep	-10.1882
▁crying	-10.1882
▁Reiter	-10.1882
▁Sachen	-10.1883
▁makeup	-10.1883
▁Hang	-10.1884
▁chain	-10.1885
▁Feldweg	-10.1888
▁sheet	-10.1892
▁dunkler	-10.1902
▁Touristen	-10.1904
▁Sitzen	-10.1909
▁see	-10.1925
▁Steine	-10.1931
▁wooded	-10.1936
H	-10.1937
▁Schutzhelmen	-10.194
▁links	-10.1962
▁violetten	-10.1968
▁shin	-10.1973
▁individuals	-10.1993
▁sea	-10.1994
▁wire	-10.1999
▁schlafen	-10.2001
▁rest	-10.2028
▁seat	-10.2031
no	-10.206
ierte	-10.2066
off	-10.2068
▁Flaggen	-10.2072
▁Schuh	-10.2075
▁Kopfhörer	-10.2098
▁wander	-10.21
▁Lo	-10.2107
▁Helmen	-10.2112
▁pack	-10.2125
anz	-10.2141
ace	-10.2151
▁Berge	-10.2181
▁coats	-10.2184
korb	-10.2192
▁Wäsche	-10.2193
veranstaltung	-10.2194
▁Springbrunnen	-10.2194
▁gezogen	-10.2194
▁hüpft	-10.2194
▁jongliert	-10.2194
▁load	-10.2194
▁practice	-10.2194
▁professional	-10.2194
▁trash	-10.2194
▁travel	-10.2194
▁wheelchair	-10.2194
▁überfüllte	-10.2194
▁wurde	-10.2194
▁center	-10.2194
▁sewing	-10.2194
▁Bullen	-10.2194
▁surface	-10.2194
boden	-10.2194
▁verwendet	-10.2195
▁hinab	-10.2195
▁Laub	-10.2196
▁Strecke	-10.2198
▁Skiern	-10.22
▁steigt	-10.2209
▁Gr	-10.2211
▁Schul	-10.2211
▁holt	-10.2213
▁closed	-10.2219
▁pitcher	-10.2228
▁grind	-10.223
▁Pe	-10.2234
▁Fahnen	-10.2241
ated	-10.2245
▁driver	-10.2245
▁covering	-10.2248
▁wrapp	-10.2253
itz	-10.2254
▁opening	-10.2263
▁bra	-10.2264
▁members	-10.2281
lichen	-10.2299
▁streets	-10.232
▁Schwimm	-10.2344
Shirts	-10.2353
ical	-10.2388
gehen	-10.2389
ary	-10.239
D	-10.2427
ller	-10.2438
park	-10.2451
ien	-10.2463
skinn	-10.247
que	-10.2477
▁Jugendliche	-10.2479
▁sh	-10.2511
▁Mahlzeit	-10.2516
▁Veranda	-10.2516
▁balcony	-10.2516
▁beverage	-10.2516
▁blouse	-10.2516
▁bottom	-10.2516
▁himself	-10.2516
▁lunch	-10.2516
▁schießt	-10.2516
▁schüttelt	-10.2516
▁softball	-10.2516
▁Umzug	-10.2516
▁schnell	-10.2516
▁third	-10.2516
▁crouche	-10.2516
▁speed	-10.2516
mantel	-10.2516
▁rasiert	-10.2516
▁kauft	-10.2516
▁sale	-10.2517
▁rechts	-10.2517
▁duck	-10.2517
▁taken	-10.2518
▁peer	-10.2519
bent	-10.2555
▁poster	-10.2562
▁tricks	-10.2573
▁Teil	-10.2588
lam	-10.2593
one	-10.2609
▁po	-10.2616
ond	-10.262
▁Ch	-10.2646
▁indoor	-10.2673
▁shak	-10.2676
land	-10.2682
▁robe	-10.2733
▁cook	-10.275
▁violette	-10.2759
light	-10.277
▁Asiate	-10.2772
voll	-10.2784
▁Rück	-10.2812
▁ta	-10.2838
▁Zeit	-10.2841
werk	-10.2849
▁London	-10.2849
▁advertisement	-10.2849
▁berührt	-10.2849
▁bläst	-10.2849
▁fotografieren	-10.2849
▁geschlossene	-10.2849
▁komplett	-10.2849
▁reparieren	-10.2849
▁staircase	-10.2849
▁Bücher	-10.2849
▁Geschenk	-10.2849
▁Wurf	-10.2849
fahrt	-10.2849
▁Anzügen	-10.2849
▁Lkw	-10.2849
▁ruht	-10.2849
▁most	-10.2849
taucht	-10.285
▁steep	-10.285
▁verfolgt	-10.285
arrow	-10.2851
▁Cowboyhut	-10.2851
▁Kopftuch	-10.2851
▁Sportler	-10.2852
▁bekommt	-10.2852
eign	-10.2852
▁swimmer	-10.2852
▁heben	-10.2854
▁Blond	-10.2854
▁dritte	-10.2857
▁tile	-10.2859
▁festival	-10.2863
▁waterfall	-10.2868
▁Personengruppe	-10.2869
hund	-10.2873
▁Getränke	-10.2875
▁hellblauen	-10.2875
▁boxes	-10.2877
▁dances	-10.2881
▁grillt	-10.2904
▁Wein	-10.2926
eht	-10.2932
alter	-10.2981
▁Instrumenten	-10.3004
▁Sieb	-10.3028
▁Er	-10.3065
roll	-10.3093
par	-10.3106
N	-10.3108
▁gra	-10.3119
▁shar	-10.3147
▁Roll	-10.315
▁jemand	-10.3155
▁war	-10.3161
▁pitch	-10.3175
▁Instrumente	-10.3185
▁garb	-10.3193
▁grocery	-10.3194
▁hockt	-10.3194
▁keyboard	-10.3194
▁puddle	-10.3194
▁saxophone	-10.3194
▁fresh	-10.3194
▁reinigt	-10.3194
▁motorcyclist	-10.3194
▁towel	-10.3194
▁podium	-10.3195
bereich	-10.3196
▁geschäftige	-10.3196
▁Wettkampf	-10.3202
▁wind	-10.3204
▁overalls	-10.3205
▁paddle	-10.3207
▁schaufel	-10.3211
▁paved	-10.3217
▁racer	-10.322
▁ha	-10.3244
mütze	-10.3255
▁brünette	-10.3266
▁Tennisspieler	-10.3268
halten	-10.3274
▁shape	-10.3275
▁tri	-10.3279
▁per	-10.3282
▁Bade	-10.3297
▁Beinen	-10.3297
▁skis	-10.3323
▁Im	-10.3324
▁Schw	-10.3345
▁jean	-10.3379
▁tub	-10.3382
rampe	-10.3383
▁Do	-10.3396
laufen	-10.3401
geht	-10.3418
▁Renn	-10.3449
covered	-10.3465
▁catche	-10.3466
▁swims	-10.3472
▁Ring	-10.3474
▁Hochzeit	-10.3503
▁Sänger	-10.3503
▁Li	-10.3513
bild	-10.3517
▁bow	-10.3521
▁cha	-10.3535
▁dancer	-10.354
▁Gelände	-10.354
▁cra	-10.3544
▁Schlag	-10.3551
schaukel	-10.3551
▁Gebiet	-10.3551
▁Hindernis	-10.3551
▁Projekt	-10.3551
▁gefüllt	-10.3551
▁gentlemen	-10.3551
▁hurdle	-10.3551
▁laundry	-10.3551
▁mound	-10.3551
▁pipe	-10.3551
▁schreit	-10.3551
▁öffnet	-10.3551
▁curb	-10.3551
▁porch	-10.3551
▁stool	-10.3551
▁tongue	-10.3551
▁ledge	-10.3551
▁Salto	-10.3551
▁Zunge	-10.3552
▁bauen	-10.3552
▁Matte	-10.3552
▁Ort	-10.3552
▁figure	-10.3553
▁airplane	-10.3553
▁Asiatin	-10.3553
▁Bach	-10.3554
▁flight	-10.3554
▁Str	-10.3555
▁cla	-10.3556
▁Here	-10.3556
▁vorbeigehen	-10.3556
▁dust	-10.3561
▁umher	-10.3565
▁Wasserfall	-10.3567
▁cool	-10.3568
▁position	-10.3569
▁einsame	-10.357
▁traditioneller	-10.358
▁gucken	-10.3582
rot	-10.3589
▁marching	-10.3595
▁Hauses	-10.3597
▁wine	-10.3597
ischer	-10.3602
▁begin	-10.3603
▁wad	-10.3605
▁weit	-10.3615
▁climber	-10.3622
▁customers	-10.3632
▁but	-10.3641
▁lachend	-10.3646
▁fingers	-10.3658
▁laugh	-10.3664
▁Asiaten	-10.3669
▁stark	-10.3671
ries	-10.3675
▁Kerl	-10.3684
hose	-10.3685
zeug	-10.3693
▁cr	-10.3714
▁bit	-10.3721
▁teenagers	-10.3723
ite	-10.373
▁tube	-10.3732
sehen	-10.3739
▁robes	-10.3743
▁hikers	-10.3762
▁examin	-10.3769
stellen	-10.3773
▁nachde	-10.3796
▁teenager	-10.3802
form	-10.3818
▁snowboard	-10.3822
▁We	-10.3827
▁Fahrräder	-10.3827
vor	-10.3839
▁Hi	-10.3842
com	-10.3843
▁draw	-10.3843
schwarzen	-10.3855
cker	-10.386
▁oriental	-10.386
last	-10.3865
▁Lauf	-10.3885
▁Ohr	-10.3886
▁grab	-10.3889
helm	-10.3891
▁Sta	-10.3899
▁birds	-10.3899
▁Groß	-10.3902
kleid	-10.3918
▁Schlauch	-10.3922
▁Hals	-10.3922
▁Geld	-10.3922
▁Gepäck	-10.3922
▁Gewehr	-10.3922
▁Kurve	-10.3922
▁aufblasbare	-10.3922
▁befestigt	-10.3922
▁groom	-10.3922
▁piano	-10.3922
▁schneiden	-10.3922
▁untersucht	-10.3922
▁wäscht	-10.3922
▁backyard	-10.3922
▁einzelne	-10.3922
▁Becher	-10.3922
▁modern	-10.3922
▁kann	-10.3922
▁wild	-10.3922
▁pair	-10.3922
▁Lederjacke	-10.3922
▁paddling	-10.3922
▁Abend	-10.3922
▁Straßenkünstler	-10.3922
▁serve	-10.3922
▁Gold	-10.3923
▁polo	-10.3924
▁Winterkleidung	-10.3924
schlag	-10.3924
▁attached	-10.3926
ral	-10.3927
ial	-10.3927
▁arena	-10.3934
▁stra	-10.3935
arbeit	-10.3935
▁Hockeyspieler	-10.3936
hemd	-10.3936
▁Tunnel	-10.3937
ollege	-10.3948
▁belt	-10.3949
▁evening	-10.3952
▁ship	-10.3967
▁sleeve	-10.397
▁frisch	-10.3973
▁steigen	-10.3977
▁lies	-10.3985
anie	-10.3998
▁shooting	-10.3999
▁bo	-10.404
ally	-10.4046
rzt	-10.4055
▁colors	-10.4061
▁Feuerwehr	-10.4072
▁Fallschirm	-10.4093
▁shade	-10.4134
▁books	-10.4139
eiter	-10.4148
▁flor	-10.4171
▁Steinen	-10.4173
▁Freund	-10.4181
cy	-10.4185
▁Di	-10.4195
▁str	-10.4202
▁verkleidet	-10.4212
Fahrer	-10.4219
▁einge	-10.4228
ance	-10.4233
▁Ballon	-10.4234
▁Ra	-10.4238
▁Teams	-10.4268
able	-10.4269
▁fold	-10.4287
stellung	-10.4303
▁Child	-10.4306
▁Verkauf	-10.4306
▁Baumstamm	-10.4306
▁Jockey	-10.4306
▁Kissen	-10.4306
▁Passanten	-10.4306
▁Terrasse	-10.4306
▁Zeitschrift	-10.4306
▁bandanna	-10.4306
▁camouflage	-10.4306
▁darunter	-10.4306
▁fabric	-10.4306
▁gießt	-10.4306
▁luggage	-10.4306
▁opponent	-10.4306
▁pavement	-10.4306
▁pillow	-10.4306
▁record	-10.4306
▁übt	-10.4306
▁entfernt	-10.4306
▁Kuh	-10.4306
▁Werkzeug	-10.4306
▁inflatable	-10.4306
▁Jahrmarkt	-10.4307
▁sword	-10.4307
▁Tarn	-10.4307
▁jumpsuit	-10.4308
▁will	-10.431
▁doll	-10.4311
▁heart	-10.4312
weise	-10.4314
ful	-10.432
▁kicks	-10.4322
▁Ausrüstung	-10.4322
▁plane	-10.4329
▁beieinander	-10.4337
▁Tuch	-10.434
▁you	-10.4343
▁blocks	-10.4346
▁feed	-10.4369
▁gelegt	-10.4377
▁denim	-10.4393
▁kickt	-10.4406
▁fenced	-10.4408
▁Eingang	-10.4413
let	-10.4426
ungen	-10.4433
▁cones	-10.445
iel	-10.4456
▁lots	-10.4461
▁tracks	-10.4477
brauner	-10.4486
▁glücklich	-10.4491
▁offen	-10.4518
▁Hunden	-10.4533
tzt	-10.454
gu	-10.4553
atz	-10.4614
▁shoot	-10.4623
like	-10.4624
lar	-10.4627
chu	-10.4658
lä	-10.4673
▁low	-10.4684
▁Male	-10.4685
▁poles	-10.4686
▁fill	-10.469
▁discuss	-10.4705
▁mark	-10.4705
▁direct	-10.4705
▁Kunst	-10.4706
▁Polizei	-10.4706
▁Bräutigam	-10.4706
▁Teleskop	-10.4706
▁barfüßige	-10.4706
▁compete	-10.4706
▁courtyard	-10.4706
▁escalator	-10.4706
▁juggling	-10.4706
▁landscape	-10.4706
▁married	-10.4706
▁model	-10.4706
▁railroad	-10.4706
▁referee	-10.4706
▁shadow	-10.4706
▁tractor	-10.4706
▁unterschiedlich	-10.4706
▁vollführt	-10.4706
▁Geschirr	-10.4706
▁Kegel	-10.4706
▁Santa	-10.4706
▁hölzerne	-10.4706
▁receiv	-10.4706
▁Brust	-10.4706
▁Street	-10.4706
▁üben	-10.4706
▁helfen	-10.4707
▁Baseballkappe	-10.4707
▁geworfen	-10.4707
▁Rollstuhl	-10.4707
▁chest	-10.4707
▁City	-10.4707
▁hinaus	-10.4708
▁goalie	-10.4709
▁lane	-10.4709
▁beam	-10.4713
▁hinterher	-10.4715
▁amuse	-10.4717
▁aco	-10.472
▁bringt	-10.4725
ett	-10.4731
▁kommen	-10.4741
▁sail	-10.4747
▁Schaufenster	-10.4759
▁buying	-10.477
ex	-10.478
▁windows	-10.4783
▁neue	-10.4798
▁Fahrer	-10.4811
▁nassen	-10.4816
▁sca	-10.4824
▁Japane	-10.4834
▁bl	-10.4852
▁pushe	-10.4852
eiß	-10.4865
lauf	-10.4869
artige	-10.4884
▁bunt	-10.4885
▁gesäumte	-10.4889
▁Spitze	-10.489
▁laughs	-10.4901
merican	-10.491
▁soldier	-10.4948
▁musician	-10.4952
▁Spielen	-10.4967
kun	-10.4987
▁eats	-10.4988
stein	-10.4992
▁Seve	-10.4995
▁riesige	-10.5029
unk	-10.5033
▁protest	-10.5036
▁relax	-10.504
box	-10.5041
▁Sees	-10.5061
▁na	-10.5072
▁Gerät	-10.5084
▁Fotograf	-10.5084
▁Sitz	-10.5091
ustic	-10.5093
▁Ru	-10.5096
jo	-10.5099
▁suspende	-10.5122
anzügen	-10.5123
▁Ziel	-10.5123
stühlen	-10.5123
▁Drachen	-10.5123
▁Kapuzenpulli	-10.5123
▁Karren	-10.5123
▁Keyboard	-10.5123
▁Schiff	-10.5123
▁Schäferhund	-10.5123
▁White	-10.5123
▁benutzen	-10.5123
▁bread	-10.5123
▁carriage	-10.5123
▁casual	-10.5123
▁club	-10.5123
▁entertain	-10.5123
▁gezeigt	-10.5123
▁gleitet	-10.5123
▁happily	-10.5123
▁konzentriert	-10.5123
▁marketplace	-10.5123
▁überprüf	-10.5123
▁banner	-10.5123
▁Koffer	-10.5123
▁peace	-10.5123
▁Neoprenanzug	-10.5123
▁Brett	-10.5123
▁bewegt	-10.5123
▁carpet	-10.5123
▁Rolltreppe	-10.5123
▁Jungs	-10.5123
▁Turnhalle	-10.5123
▁heiße	-10.5123
▁socks	-10.5123
▁feiern	-10.5123
▁paddelt	-10.5123
▁egg	-10.5123
▁mustache	-10.5124
▁Waldgebiet	-10.5124
▁attend	-10.5124
▁dune	-10.5124
▁garbage	-10.5125
▁adjust	-10.5125
▁Besen	-10.5126
lit	-10.5126
▁rollerskat	-10.5129
▁Plakat	-10.5133
▁tight	-10.5133
▁pajamas	-10.5135
▁Seiten	-10.5135
▁firefighter	-10.5138
▁order	-10.5139
▁angelt	-10.5142
▁fertig	-10.5143
licht	-10.5143
▁stehende	-10.5147
▁bucking	-10.5153
▁diver	-10.5156
▁backwards	-10.5157
tür	-10.5159
pri	-10.5161
▁farbige	-10.5161
▁scaffolding	-10.5164
▁geben	-10.5166
▁Brot	-10.5167
▁ringen	-10.5191
▁cheering	-10.5196
▁touching	-10.5204
▁map	-10.5251
▁goods	-10.5263
▁Theke	-10.5272
▁tools	-10.5273
▁step	-10.5283
▁skirts	-10.5285
▁soldiers	-10.5301
▁Bl	-10.5305
tered	-10.5374
▁nasse	-10.5379
▁pl	-10.538
▁direction	-10.5382
▁bubble	-10.5384
Skateboardfahrer	-10.5414
▁come	-10.5436
▁moves	-10.544
old	-10.5446
▁abge	-10.5462
U	-10.5471
▁pre	-10.5512
mannschaft	-10.5519
▁Handschuh	-10.552
▁ja	-10.5522
trick	-10.5549
weight	-10.5549
▁toss	-10.555
▁fly	-10.5554
änner	-10.5555
halle	-10.5557
kampf	-10.5557
▁Militär	-10.5558
▁McDonald	-10.5558
▁Protest	-10.5558
anlage	-10.5558
skulptur	-10.5558
▁Gemälde	-10.5558
▁Hürde	-10.5558
▁John	-10.5558
▁Saxophon	-10.5558
▁Stapel	-10.5558
▁Tennisschläger	-10.5558
▁Trägerhemd	-10.5558
▁Vögel	-10.5558
▁athletic	-10.5558
▁bounc	-10.5558
▁caught	-10.5558
▁frisbee	-10.5558
▁gelehnt	-10.5558
▁harness	-10.5558
▁lehnen	-10.5558
▁living	-10.5558
▁obstacle	-10.5558
▁plaza	-10.5558
▁serving	-10.5558
▁underwater	-10.5558
▁wagon	-10.5558
▁Gegner	-10.5558
▁Weihnachtsbaum	-10.5558
▁airport	-10.5558
▁involv	-10.5558
▁rugby	-10.5558
▁Flughafen	-10.5558
▁German	-10.5558
▁stove	-10.5558
▁Nahaufnahme	-10.5558
▁coach	-10.5558
▁barrel	-10.5558
▁snack	-10.5558
▁broom	-10.5558
▁teammate	-10.5558
▁action	-10.5558
Puppe	-10.5558
▁sheep	-10.5558
▁kehrt	-10.5558
▁Mänteln	-10.5558
▁Musikinstrument	-10.5558
▁Auftritt	-10.5559
▁Knie	-10.5559
▁Gewand	-10.5559
▁six	-10.5559
▁dining	-10.5559
▁Herd	-10.556
▁Motocross	-10.556
▁free	-10.556
▁Handtuch	-10.5561
seite	-10.5561
▁Mi	-10.5561
▁doctor	-10.5562
bekleidung	-10.5567
sleeved	-10.5568
▁Heu	-10.5569
▁bro	-10.557
▁hay	-10.5576
▁teacher	-10.5579
▁Angel	-10.558
▁welding	-10.5582
schau	-10.5583
▁wide	-10.5584
▁raised	-10.5586
▁frische	-10.5591
▁Stöcke	-10.5593
▁Vi	-10.5598
▁du	-10.5603
▁ausgestreckte	-10.5609
▁hübsche	-10.5611
ggy	-10.5613
▁bear	-10.5624
▁touch	-10.563
raum	-10.5639
▁farm	-10.564
▁Meeres	-10.564
▁jerseys	-10.5649
▁riders	-10.5682
stock	-10.5728
▁motorcycles	-10.5737
▁irgendeine	-10.5751
fully	-10.5754
ress	-10.5772
eil	-10.5774
▁bekleidete	-10.5774
ator	-10.5789
lad	-10.5795
ple	-10.5802
▁participat	-10.5837
▁fans	-10.5857
▁student	-10.5861
▁orientalische	-10.5863
▁dra	-10.5883
▁Berges	-10.5888
rock	-10.5902
▁Blätter	-10.5916
▁hitt	-10.5927
pool	-10.5931
▁Farbe	-10.5933
▁shown	-10.5937
q	-10.5958
▁Hocke	-10.5961
▁animals	-10.5962
▁Soldat	-10.5974
▁traditionelle	-10.5977
▁hood	-10.599
fläche	-10.5995
work	-10.5998
ktion	-10.6003
▁Bowling	-10.6012
▁Zahl	-10.6012
köpfige	-10.6012
▁Angelrute	-10.6012
▁Bildschirm	-10.6012
▁Fläche	-10.6012
▁Pfütze	-10.6012
▁Skulptur	-10.6012
▁Trompete	-10.6012
▁Zement	-10.6012
▁gravel	-10.6012
▁gräbt	-10.6012
▁jockey	-10.6012
▁necklace	-10.6012
▁operating	-10.6012
▁polka	-10.6012
▁schießen	-10.6012
▁trumpet	-10.6012
▁Rollerblades	-10.6012
▁haircut	-10.6012
▁native	-10.6012
▁Labor	-10.6012
▁Stirn	-10.6012
▁Lehrer	-10.6012
▁Wohnzimmer	-10.6012
▁Schutzbrille	-10.6013
▁sink	-10.6013
▁Gelb	-10.6013
▁Weihnachtsmann	-10.6013
▁mom	-10.6013
▁storefront	-10.6013
▁steinige	-10.6013
▁jagen	-10.6013
▁Schwert	-10.6014
▁drummer	-10.6014
▁Gang	-10.6016
▁Wandbild	-10.6016
▁Leder	-10.6017
▁Treppen	-10.6017
▁Fans	-10.6017
▁Pier	-10.602
▁Bauch	-10.6021
▁trainiert	-10.6022
▁sechs	-10.6023
gebaut	-10.6023
ummer	-10.6025
▁hall	-10.6029
▁Werbung	-10.6031
▁Handstand	-10.6032
▁hooded	-10.6032
▁khakifarbene	-10.6036
▁Ziegel	-10.6038
▁Studenten	-10.604
▁Dinge	-10.6041
▁mudd	-10.6043
▁kalten	-10.605
▁folgt	-10.6052
▁zer	-10.6056
▁jemanden	-10.6063
▁color	-10.6068
▁lassen	-10.6079
ette	-10.6081
▁spinn	-10.6088
▁Fischer	-10.6097
setzen	-10.6102
spielzeug	-10.6104
▁No	-10.6118
elle	-10.612
▁barbecue	-10.6133
▁paints	-10.6156
▁complete	-10.6174
ierten	-10.6183
▁bare	-10.62
▁bin	-10.6215
▁angezogen	-10.6218
äck	-10.6226
glas	-10.626
arge	-10.6287
▁tackle	-10.6308
▁grilling	-10.6309
▁flipp	-10.6309
▁sw	-10.6313
▁individual	-10.6314
▁cover	-10.6316
▁cone	-10.6318
▁halb	-10.6323
vil	-10.6344
▁raise	-10.6349
ump	-10.636
▁engage	-10.6382
og	-10.6386
▁volle	-10.6395
gelegt	-10.6401
tritt	-10.6402
down	-10.6403
▁Ba	-10.6404
▁cheer	-10.6406
▁runners	-10.641
llen	-10.6414
▁Dr	-10.6426
▁Zu	-10.6443
bus	-10.6451
kel	-10.6452
▁Sicherheits	-10.6467
▁pit	-10.6474
▁approach	-10.6477
rest	-10.6477
ood	-10.6485
▁leav	-10.6486
sammelt	-10.6486
hoe	-10.6486
▁reflect	-10.6487
hilfe	-10.6488
▁Kampf	-10.6489
▁Kapuze	-10.6489
förmige	-10.6489
▁Behälter	-10.6489
▁Brown	-10.6489
▁Bushaltestelle	-10.6489
▁Daumen	-10.6489
▁Figur	-10.6489
▁Gassi	-10.6489
▁Hütte	-10.6489
▁Klavier	-10.6489
▁Kletterer	-10.6489
▁Orchester	-10.6489
▁Ozean	-10.6489
▁Pfosten	-10.6489
▁Pärchen	-10.6489
▁Zuschauermenge	-10.6489
▁bathroom	-10.6489
▁control	-10.6489
▁geblümte	-10.6489
▁headscarf	-10.6489
▁jungle	-10.6489
▁kahlköpfiger	-10.6489
▁kochen	-10.6489
▁orchestra	-10.6489
▁ribbon	-10.6489
▁routine	-10.6489
▁sandwich	-10.6489
▁spread	-10.6489
▁thumb	-10.6489
▁Eltern	-10.6489
▁Profi	-10.6489
▁daneben	-10.6489
▁garage	-10.6489
▁schwere	-10.6489
▁Säule	-10.6489
▁camel	-10.6489
▁saw	-10.6489
▁interact	-10.6489
▁candy	-10.6489
▁motorbike	-10.6489
rubber	-10.6489
▁text	-10.6489
▁checkered	-10.6489
▁Kamel	-10.6489
▁weint	-10.6489
▁things	-10.6489
▁hören	-10.6489
▁half	-10.6489
▁hallway	-10.6489
▁studio	-10.6489
▁streichelt	-10.6489
▁DJ	-10.6489
▁money	-10.6489
▁youth	-10.649
▁heels	-10.649
▁presentation	-10.649
salon	-10.649
▁Feier	-10.649
▁Fest	-10.649
▁Videospiel	-10.649
▁kite	-10.6491
▁Kette	-10.6492
▁baut	-10.6492
▁dicht	-10.6492
▁mobile	-10.6493
▁Stadtstraße	-10.6494
▁nähert	-10.6498
▁redhead	-10.65
Backsteingebäude	-10.65
▁bringen	-10.6501
▁sack	-10.6502
strecke	-10.6502
▁z	-10.6503
▁runden	-10.6503
wasser	-10.6505
▁Herz	-10.6506
buch	-10.6511
selbe	-10.6512
▁Menschengruppe	-10.6512
▁guitarist	-10.6516
▁Kran	-10.6516
▁backpacks	-10.6517
▁Trainings	-10.6528
▁pedestrians	-10.6528
▁steilen	-10.6529
▁beigefarbene	-10.6529
▁Topf	-10.6538
▁rast	-10.6542
▁sha	-10.6544
▁Stier	-10.655
blaue	-10.6558
▁Motor	-10.6562
▁Füßen	-10.6576
▁gehende	-10.6582
▁lächelndes	-10.6588
pie	-10.6604
hosen	-10.6605
of	-10.6605
sam	-10.6617
▁hinein	-10.6625
▁stor	-10.6639
eep	-10.666
▁benches	-10.6661
▁rod	-10.6667
▁anzu	-10.667
▁Kunststücke	-10.6679
▁Car	-10.6685
decke	-10.6697
▁stehenden	-10.6706
▁sing	-10.6708
▁Ballons	-10.6711
fährt	-10.6726
▁bestehende	-10.6728
▁point	-10.6731
stellt	-10.6769
▁cyclists	-10.6773
ked	-10.6787
▁Schutz	-10.6794
ahl	-10.68
▁craft	-10.6814
verkäufer	-10.6828
▁thrown	-10.6839
▁Rede	-10.6849
halt	-10.685
deck	-10.686
▁photographs	-10.6881
▁vorüber	-10.6887
▁creat	-10.6911
dress	-10.6914
robe	-10.6938
▁Tourist	-10.695
▁Bike	-10.6951
▁dive	-10.6959
▁film	-10.6967
▁handle	-10.6982
otocross	-10.6986
▁multi	-10.6987
▁Einkaufs	-10.6987
▁Taucher	-10.6988
irthday	-10.6989
▁Bahnsteig	-10.6989
▁Dreadlocks	-10.6989
▁Gummi	-10.6989
▁Hammer	-10.6989
▁Karton	-10.6989
▁Motorroller	-10.6989
▁Outdoor	-10.6989
▁Rennauto	-10.6989
▁Schnurrbart	-10.6989
▁Skatepark	-10.6989
▁Taxi	-10.6989
▁elephant	-10.6989
▁entrance	-10.6989
▁focus	-10.6989
▁patio	-10.6989
▁pattern	-10.6989
▁racetrack	-10.6989
▁speech	-10.6989
▁Kunststoff	-10.6989
▁mehrfarbige	-10.6989
▁ceiling	-10.6989
▁scheinen	-10.6989
▁Robe	-10.6989
▁China	-10.6989
▁Fliege	-10.6989
▁Socken	-10.6989
▁excited	-10.6989
▁Einkaufszentrum	-10.6989
▁crash	-10.6989
▁machinery	-10.6989
▁joggt	-10.6989
▁Picknicktisch	-10.6989
▁muzzle	-10.6989
▁Steinmauer	-10.6989
▁admir	-10.6989
▁Baseballmütze	-10.699
▁leaf	-10.6991
▁Inline	-10.6991
▁puck	-10.6992
▁summer	-10.6992
▁hid	-10.6993
▁policeman	-10.6994
cuba	-10.6994
▁mall	-10.6997
▁auszu	-10.7
▁su	-10.7001
stapel	-10.7003
▁tag	-10.7004
▁batter	-10.701
▁Speisen	-10.7011
▁container	-10.7015
▁sprinkler	-10.7015
▁dunkelblaue	-10.7016
▁Biker	-10.7026
▁zeichnet	-10.7036
▁spritzt	-10.7036
▁dicke	-10.7038
rench	-10.7044
▁pett	-10.7047
▁vehicles	-10.705
▁Kisten	-10.7056
▁Motorrädern	-10.7061
mittel	-10.7065
▁Cafe	-10.7081
▁tool	-10.7097
▁snowboarding	-10.7104
▁passengers	-10.7112
▁verkleidete	-10.7114
▁Kopfhörern	-10.7145
▁gaze	-10.7156
▁examine	-10.72
ped	-10.7217
▁rowing	-10.7217
▁pen	-10.722
▁tip	-10.7236
▁read	-10.7245
ffel	-10.7254
▁Kunstwerk	-10.7258
▁rests	-10.7282
recht	-10.7315
ried	-10.7329
▁Red	-10.7334
▁smoke	-10.7338
▁good	-10.7342
▁glove	-10.7342
▁abzu	-10.7369
▁ropes	-10.7398
▁angel	-10.7405
▁ears	-10.7405
▁Füße	-10.7419
▁Blume	-10.7421
Reifen	-10.7428
style	-10.7428
show	-10.7428
Schild	-10.7428
Gitarre	-10.7429
▁Sonnenbrillen	-10.7439
▁sets	-10.7455
▁buy	-10.7457
▁Wei	-10.7466
▁Gitarrist	-10.7475
▁plac	-10.748
▁Schule	-10.7487
▁Baseballspiel	-10.7498
kü	-10.75
▁mop	-10.7501
llow	-10.7511
▁Grün	-10.7515
▁Anlegestelle	-10.7515
▁Crowd	-10.7515
▁Geldbörse	-10.7515
▁Körper	-10.7515
▁Nickerchen	-10.7515
▁Nähmaschine	-10.7515
▁Sanddüne	-10.7515
▁Wasserski	-10.7515
▁african	-10.7515
▁aqua	-10.7515
▁boardwalk	-10.7515
▁donkey	-10.7515
▁dünne	-10.7515
▁electronic	-10.7515
▁feather	-10.7515
▁hospital	-10.7515
▁intersection	-10.7515
▁ländliche	-10.7515
▁museum	-10.7515
▁product	-10.7515
schließ	-10.7515
▁Freiluft	-10.7515
▁Passagier	-10.7515
▁herself	-10.7515
▁rudert	-10.7515
▁ATV	-10.7515
▁Dorf	-10.7515
▁schwach	-10.7515
▁ornate	-10.7515
▁Hinterhof	-10.7515
▁barrier	-10.7515
▁beschäftigt	-10.7515
▁Straßenhändler	-10.7515
▁Bahnhof	-10.7515
▁Windhund	-10.7515
▁rough	-10.7515
▁drill	-10.7515
Skate	-10.7515
▁Bowlingbahn	-10.7516
▁Lampe	-10.7516
▁stopped	-10.7516
▁Rennwagen	-10.7516
▁possibly	-10.7516
▁seichte	-10.7516
▁keep	-10.7516
▁horseback	-10.7516
▁kahl	-10.7516
▁schwarzhaarige	-10.7517
▁Kreuzung	-10.7517
▁Stift	-10.7517
▁discussion	-10.7517
▁Traktor	-10.7517
▁va	-10.7517
▁Start	-10.7518
▁hillside	-10.7519
▁dire	-10.752
▁vorbeifährt	-10.752
▁Kies	-10.752
▁headband	-10.7522
▁bushes	-10.7523
▁Bekleidung	-10.7524
▁featur	-10.7527
▁surrounding	-10.7531
▁Wettbewerb	-10.7532
▁song	-10.7535
▁langhaariger	-10.7544
▁Esel	-10.7545
▁wrestler	-10.7548
assen	-10.755
▁sil	-10.7556
▁horn	-10.7571
▁lockige	-10.7574
▁Zeichen	-10.7575
▁cab	-10.758
▁silbernen	-10.7586
ches	-10.7591
▁Schlagzeuger	-10.7594
▁fruits	-10.76
▁apple	-10.7628
▁lin	-10.7632
▁dot	-10.7637
ron	-10.7641
▁tin	-10.7651
▁enter	-10.7655
▁Typen	-10.7659
▁splashe	-10.766
▁Luftballons	-10.7665
io	-10.7682
ence	-10.7692
gg	-10.7709
▁participate	-10.7723
▁Getränken	-10.7776
▁Graffitis	-10.7782
▁ca	-10.7788
rand	-10.7809
▁tea	-10.7843
▁Tee	-10.7844
arbeiter	-10.7849
▁Ei	-10.7864
ky	-10.79
▁geöffnete	-10.7907
▁cleans	-10.7918
▁dunkle	-10.7941
itte	-10.7967
▁nah	-10.7971
▁Softball	-10.7971
treten	-10.7987
▁mus	-10.7992
▁Har	-10.8011
unte	-10.8011
▁glä	-10.8029
inde	-10.8034
▁streich	-10.8034
▁bikers	-10.8044
▁pet	-10.8044
▁Erd	-10.8046
▁baskets	-10.805
flasche	-10.8059
▁Waffe	-10.8065
car	-10.8065
▁Rugby	-10.8069
▁Außen	-10.807
linie	-10.807
▁Hinter	-10.807
Fußgängerüberweg	-10.807
▁Balken	-10.807
▁Bänken	-10.807
▁Club	-10.807
▁Flüssigkeit	-10.807
▁Gürtel	-10.807
▁Klettergerüst	-10.807
▁Olympic	-10.807
▁Rädern	-10.807
▁Sonnenschirm	-10.807
▁Verkäufer	-10.807
▁bearbeitet	-10.807
▁berühren	-10.807
▁celebrating	-10.807
▁eingezäunte	-10.807
▁exhibit	-10.807
▁fencing	-10.807
▁flauschige	-10.807
▁great	-10.807
▁können	-10.807
▁maroon	-10.807
▁marschiert	-10.807
▁neighborhood	-10.807
▁patient	-10.807
▁silhouette	-10.807
▁taxi	-10.807
▁verheiratete	-10.807
▁village	-10.807
▁selbst	-10.807
▁trockene	-10.807
▁cobble	-10.807
▁interview	-10.807
▁wife	-10.807
▁Mittag	-10.807
▁Bowlingkugel	-10.807
▁moment	-10.8071
▁puppy	-10.8071
bewegung	-10.8071
▁Schwimmweste	-10.8071
▁Strohhut	-10.8071
▁Teig	-10.8071
▁Einkaufstasche	-10.8071
▁East	-10.8071
▁Dreck	-10.8071
▁firetruck	-10.8071
▁Moped	-10.8071
▁USA	-10.8071
▁tun	-10.8071
▁squatting	-10.8072
Cola	-10.8072
▁Rauch	-10.8072
▁Halle	-10.8072
▁nav	-10.8072
▁outstretched	-10.8072
▁Wange	-10.8072
▁blondhaarige	-10.8073
▁Feder	-10.8073
▁Seife	-10.8074
▁still	-10.8074
▁Chor	-10.8075
▁knit	-10.8076
born	-10.8077
▁Puck	-10.8077
▁gehalten	-10.8079
▁dishes	-10.8081
▁Arena	-10.8083
▁US	-10.8084
▁handstand	-10.8087
▁amüsieren	-10.8091
▁runter	-10.8091
▁clay	-10.8093
▁Rucksäcken	-10.8095
▁beladen	-10.81
▁Wänden	-10.8101
▁Lied	-10.8102
▁statt	-10.8105
▁los	-10.8115
▁anhat	-10.8122
▁Fotografen	-10.8122
▁vorne	-10.8126
▁tätowierte	-10.8145
pped	-10.8152
▁leicht	-10.8153
cent	-10.8154
▁farmer	-10.8163
▁herab	-10.8166
pfen	-10.8176
▁Regenschirmen	-10.8185
▁fur	-10.8193
▁Ton	-10.8205
lose	-10.8213
▁hugs	-10.8219
findet	-10.8221
dach	-10.8281
▁passende	-10.8292
▁ahead	-10.833
ious	-10.8332
▁medic	-10.8332
▁pu	-10.8336
rück	-10.8347
▁indoors	-10.8374
▁glückliche	-10.838
ähnliche	-10.8391
▁seats	-10.8396
rank	-10.8416
▁Feuerwehrm	-10.8422
▁slides	-10.8429
▁eng	-10.8454
▁schlafende	-10.8476
▁finger	-10.8485
▁seltsame	-10.8497
▁item	-10.8511
richten	-10.8526
▁prob	-10.8542
V	-10.8562
über	-10.8565
spielen	-10.8566
uniform	-10.8572
steigen	-10.8578
wood	-10.8578
▁Afroamerikaner	-10.8586
farbene	-10.8586
▁tee	-10.8587
farbe	-10.8617
▁wrestle	-10.8621
Y	-10.8622
▁Volleyballspiel	-10.8632
▁wate	-10.8633
▁corn	-10.8637
▁dish	-10.8651
figur	-10.8657
▁chalk	-10.8658
sprung	-10.8659
bildschirm	-10.8659
blätter	-10.8659
ecurity	-10.8659
▁Bluejeans	-10.8659
▁Gespräch	-10.8659
▁Gewänder	-10.8659
▁Heißluftballon	-10.8659
▁Herbst	-10.8659
▁Hotel	-10.8659
▁Konferenz	-10.8659
▁Platte	-10.8659
▁Plattform	-10.8659
▁Sandstrand	-10.8659
▁Schlittschuh	-10.8659
▁Schubkarre	-10.8659
▁Silhouette	-10.8659
▁Square	-10.8659
▁Surfboard	-10.8659
▁Tafel	-10.8659
▁bagpipe	-10.8659
▁begutachtet	-10.8659
▁choir	-10.8659
▁cricket	-10.8659
▁dreadlocks	-10.8659
▁füllt	-10.8659
▁gebeugt	-10.8659
▁gegenseitig	-10.8659
▁glatzköpfige	-10.8659
▁hotdog	-10.8659
▁nächste	-10.8659
▁richtet	-10.8659
▁schwenkt	-10.8659
▁suitcase	-10.8659
▁treffen	-10.8659
kreuz	-10.8659
▁Show	-10.8659
▁crouching	-10.8659
▁odd	-10.8659
▁own	-10.8659
▁rink	-10.8659
▁spoon	-10.8659
▁steckt	-10.8659
▁vacuum	-10.8659
▁Becken	-10.8659
▁brennende	-10.8659
▁upward	-10.8659
▁Schachtel	-10.8659
▁ballerina	-10.8659
▁first	-10.8659
▁regne	-10.8659
▁sofa	-10.8659
▁visit	-10.8659
▁dead	-10.8659
▁patch	-10.8659
▁scenery	-10.8659
▁carving	-10.8659
▁Abendessen	-10.8659
▁punch	-10.8659
▁Schwimmbad	-10.8659
drückt	-10.8659
▁Schlafanzug	-10.8659
flops	-10.8659
▁soda	-10.8659
▁calf	-10.8659
▁Hoch	-10.866
▁sucht	-10.866
▁knien	-10.866
▁geschminkte	-10.866
▁iron	-10.866
▁grand	-10.8661
läufer	-10.8661
▁cheerleaders	-10.8661
▁College	-10.8661
▁lamp	-10.8662
▁hart	-10.8662
▁Noten	-10.8662
▁gift	-10.8662
zeit	-10.8664
▁Fußballfeld	-10.8664
▁Pitcher	-10.8667
boot	-10.8668
▁size	-10.8668
▁stripes	-10.8669
▁Ente	-10.8669
▁kaut	-10.8671
▁Texas	-10.8678
▁Tattoo	-10.8683
▁monitor	-10.8683
▁Kerzen	-10.8685
▁newly	-10.8687
▁stretching	-10.8689
▁circu	-10.8689
▁crew	-10.8701
▁buckets	-10.8702
ön	-10.8719
▁flachen	-10.872
▁stares	-10.8723
▁amid	-10.8725
▁Karten	-10.8727
ruhen	-10.8737
▁Outfits	-10.8744
▁bottles	-10.8755
▁coloring	-10.8766
▁fo	-10.8767
▁thin	-10.8783
leicht	-10.8816
▁skates	-10.8839
▁gas	-10.885
▁smokes	-10.886
lassen	-10.8867
▁crafts	-10.8871
▁tags	-10.8874
▁weiter	-10.8883
▁Deck	-10.8894
▁Turner	-10.89
farbenen	-10.8906
onder	-10.8907
▁Golf	-10.8915
llt	-10.8941
waschen	-10.8946
gelb	-10.8988
well	-10.899
▁motor	-10.8994
▁Kleider	-10.8996
spritzen	-10.9003
▁medi	-10.902
▁bite	-10.903
▁boxing	-10.9032
▁Turnerin	-10.9057
▁Wette	-10.9106
▁Luftballon	-10.9108
▁member	-10.9109
▁vegetable	-10.911
▁Cheerleaders	-10.9112
zelt	-10.9141
▁spring	-10.9145
▁wrap	-10.9164
statue	-10.917
braunen	-10.9184
▁Grimasse	-10.9187
hält	-10.9187
▁Fahne	-10.9189
block	-10.9196
Kostüm	-10.9197
Oberteil	-10.9197
Hemd	-10.9198
▁bik	-10.9201
▁sweep	-10.9201
öcken	-10.9206
stone	-10.9255
hör	-10.9255
▁Box	-10.9255
▁link	-10.9261
▁tattoos	-10.9262
▁Sängerin	-10.9269
▁Wohn	-10.9271
▁branch	-10.9272
landschaft	-10.9282
schminkt	-10.9282
odium	-10.9282
▁Hafen	-10.9283
fenster	-10.9284
▁Brandung	-10.9284
▁Elmo	-10.9284
▁Friseur	-10.9284
▁Hilfe	-10.9284
▁Körbe	-10.9284
▁LKW	-10.9284
▁Lächeln	-10.9284
▁Löffel	-10.9284
▁Natur	-10.9284
▁Plastiktüte	-10.9284
▁altmodische	-10.9284
▁breite	-10.9284
▁cheek	-10.9284
▁chicken	-10.9284
▁collect	-10.9284
▁column	-10.9284
▁conference	-10.9284
▁entspannen	-10.9284
▁ethnic	-10.9284
▁furniture	-10.9284
▁greyhound	-10.9284
▁gymnasium	-10.9284
▁kopfüber	-10.9284
▁library	-10.9284
▁liquid	-10.9284
▁marschieren	-10.9284
▁material	-10.9284
▁parachute	-10.9284
▁partially	-10.9284
▁silberfarbene	-10.9284
▁similar	-10.9284
▁stairway	-10.9284
▁unicycle	-10.9284
▁Bewegung	-10.9284
▁Middle	-10.9284
▁boulder	-10.9284
▁intently	-10.9284
▁schweißt	-10.9284
▁japanische	-10.9284
▁untersuchen	-10.9284
▁Kalb	-10.9284
▁tray	-10.9284
▁beißt	-10.9284
wirbelt	-10.9284
▁Umhang	-10.9284
schieben	-10.9284
schloss	-10.9284
▁Waschsalon	-10.9284
▁entgegen	-10.9284
▁Linie	-10.9284
▁Wettrennen	-10.9284
▁jede	-10.9284
▁dimly	-10.9284
▁Film	-10.9284
▁nighttime	-10.9284
▁Feuerwehrmann	-10.9284
▁Theater	-10.9284
▁crane	-10.9285
▁comfort	-10.9285
▁Röcken	-10.9285
▁Frisbeescheibe	-10.9285
▁Blumenmuster	-10.9285
▁derby	-10.9286
▁Must	-10.9286
▁space	-10.9286
▁tower	-10.9286
▁fegt	-10.9287
▁castle	-10.9287
▁love	-10.9287
▁tend	-10.9287
act	-10.9288
▁Sportwagen	-10.9288
▁planscht	-10.9289
▁dazu	-10.929
▁Grasfläche	-10.929
▁jet	-10.9291
▁calm	-10.9291
tlich	-10.9291
▁Jeansjacke	-10.9292
▁bass	-10.9292
▁Wasserflasche	-10.9296
▁barber	-10.9296
▁Messer	-10.9297
▁trainieren	-10.9297
▁füttert	-10.9298
▁Fahrt	-10.9298
▁spä	-10.9299
▁noch	-10.9301
▁parent	-10.9303
▁range	-10.9303
▁win	-10.9304
▁Spielkleidung	-10.9304
▁Kugel	-10.9304
▁test	-10.9306
▁moped	-10.9308
muster	-10.9309
▁bewölkten	-10.9312
▁Mitglieder	-10.9312
▁para	-10.9318
▁Palmen	-10.9324
▁Tauben	-10.9331
▁cast	-10.9334
▁tied	-10.9346
▁pigeons	-10.9347
die	-10.9349
▁ga	-10.9354
▁following	-10.9359
▁rollt	-10.9363
rying	-10.9371
▁pret	-10.9379
▁aufgestellt	-10.9382
Eishockeyspieler	-10.9384
▁farbenfroher	-10.9393
▁candles	-10.9394
▁cop	-10.9405
▁beat	-10.9407
▁rug	-10.9413
blau	-10.9415
▁listens	-10.9418
▁style	-10.9421
ity	-10.9421
▁soll	-10.9424
tanz	-10.9426
▁rais	-10.9434
▁lounge	-10.9439
▁Herren	-10.9451
▁trailer	-10.9451
round	-10.9465
kart	-10.9474
▁wandern	-10.9482
erry	-10.9487
▁tackl	-10.9529
▁verlassen	-10.9534
▁balding	-10.9535
▁Geschäften	-10.9539
eben	-10.9554
gang	-10.9568
▁fliegende	-10.9574
weste	-10.9601
ature	-10.9615
▁fröhliche	-10.9616
gar	-10.9632
▁typ	-10.9652
lift	-10.9653
bedeckte	-10.9658
ox	-10.9665
▁shake	-10.9702
▁fliegen	-10.9729
▁Jack	-10.976
▁got	-10.9771
▁loung	-10.9787
bel	-10.9824
▁hug	-10.9844
▁Eishockey	-10.9845
sleeve	-10.9847
▁Motorräder	-10.9855
stehende	-10.9855
▁Stufe	-10.9856
▁parkt	-10.9859
läuft	-10.9864
shorts	-10.9864
▁march	-10.9869
iegen	-10.9896
more	-10.9903
▁Ziege	-10.991
▁Fels	-10.9913
▁langhaarige	-10.9913
▁contain	-10.9915
▁share	-10.9923
▁Schafe	-10.9944
hügel	-10.9947
neath	-10.9948
▁cheerlead	-10.9948
gebiet	-10.9948
wendet	-10.995
▁Weihnachts	-10.995
▁Modell	-10.995
▁Hawaii	-10.995
wärts	-10.995
▁Badewanne	-10.995
▁Elefanten	-10.995
▁Floß	-10.995
▁Flöte	-10.995
▁Händler	-10.995
▁Klassenraum	-10.995
▁Kreide	-10.995
▁Kricket	-10.995
▁Mülltonne	-10.995
▁Produkte	-10.995
▁Säugling	-10.995
▁Transport	-10.995
▁Violine	-10.995
▁Walmart	-10.995
▁advertising	-10.995
▁ausgebreitet	-10.995
▁billboard	-10.995
▁bückt	-10.995
▁celebrate	-10.995
▁converse	-10.995
▁dekoriert	-10.995
▁diskutieren	-10.995
▁jewelry	-10.995
▁jubeln	-10.995
▁nieder	-10.995
▁näht	-10.995
▁observing	-10.995
▁process	-10.995
▁rainbow	-10.995
▁scheinbar	-10.995
▁stomach	-10.995
▁television	-10.995
▁treibt	-10.995
▁verlässt	-10.995
▁weather	-10.995
▁übergewichtige	-10.995
▁Home	-10.995
▁Multip	-10.995
▁Notiz	-10.995
▁juggle	-10.995
▁operate	-10.995
▁Köche	-10.995
▁wischt	-10.995
▁peek	-10.995
▁verdeckt	-10.995
wurf	-10.995
▁Ballerina	-10.995
▁Bandana	-10.995
▁Flur	-10.995
▁forward	-10.995
▁bundle	-10.995
▁return	-10.995
▁treat	-10.995
stimmt	-10.995
▁reinigen	-10.995
▁Sessel	-10.995
▁Piste	-10.995
▁Mittagessen	-10.9951
▁Ziegelmauer	-10.9951
▁learn	-10.9951
▁Halskette	-10.9951
▁chew	-10.9951
▁Straßenmusik	-10.9951
▁klare	-10.9951
▁Fahrgeschäft	-10.9951
▁Reifenschaukel	-10.9951
kurs	-10.9951
▁joggen	-10.9951
▁Wind	-10.9951
▁starren	-10.9951
▁Tribüne	-10.9951
▁festhält	-10.9951
▁Bogen	-10.9953
▁Nah	-10.9953
▁Torhüter	-10.9953
▁Maulkorb	-10.9954
▁Feuerwehrleute	-10.9954
▁Moment	-10.9954
▁spot	-10.9954
▁Polo	-10.9954
▁Time	-10.9955
▁lick	-10.9955
▁exit	-10.9955
▁skill	-10.9956
▁bekommen	-10.9957
▁befahrene	-10.9957
▁bewundert	-10.9957
▁bespritzt	-10.9957
hile	-10.9957
▁fireman	-10.9958
▁theater	-10.9958
▁Rohr	-10.9959
▁Waldweg	-10.9959
zahl	-10.996
▁ausgestellt	-10.9962
Derby	-10.9962
▁Sportkleidung	-10.9963
▁called	-10.9966
handschuh	-10.9968
▁official	-10.997
▁Snowboardfahre	-10.9971
▁Poster	-10.9978
▁pop	-10.9979
träger	-10.998
▁Büschen	-10.9981
▁goat	-10.9983
▁Fire	-10.9984
▁flute	-10.9984
▁prop	-10.9986
▁Fecht	-10.999
▁press	-10.9994
▁cape	-10.9998
▁engen	-10.9998
▁tape	-11
▁Beine	-11.0009
▁torch	-11.0012
▁ober	-11.0015
▁crosses	-11.0017
▁Laufen	-11.0022
▁Ohren	-11.0022
▁Welpen	-11.0028
▁strip	-11.0039
▁teach	-11.0043
▁Schildern	-11.0056
▁pine	-11.008
▁Tanzen	-11.009
▁Baumes	-11.0095
▁follows	-11.012
gestellt	-11.0136
▁lang	-11.0144
▁far	-11.0144
▁Schleife	-11.0164
▁Schirmen	-11.0165
▁Flaschen	-11.0184
arded	-11.0199
▁directions	-11.0232
▁aufgeregt	-11.0263
▁ähnlich	-11.0263
▁catcher	-11.0267
▁shades	-11.0269
bends	-11.0278
▁wir	-11.0312
▁bekleidet	-11.0314
hat	-11.0383
▁Stangen	-11.0384
▁follow	-11.0402
lten	-11.0445
bad	-11.0469
▁passenger	-11.0489
▁trunk	-11.0491
blade	-11.0491
▁say	-11.0491
▁Tennisspielerin	-11.0514
schwarz	-11.0518
▁cage	-11.054
och	-11.0541
▁silberne	-11.0569
▁Kiste	-11.0569
▁Süßigkeiten	-11.057
▁verschneite	-11.0571
J	-11.0576
▁verschieden	-11.059
schaut	-11.0591
▁mi	-11.0612
▁hike	-11.0628
rlich	-11.064
▁tug	-11.0643
stürzt	-11.0651
▁whil	-11.0656
occer	-11.0661
hüte	-11.0662
udio	-11.0663
▁jog	-11.0663
▁Krankenhaus	-11.0665
▁Freu	-11.0665
▁Aussicht	-11.0665
▁Coca	-11.0665
▁Halloween	-11.0665
▁Pfadfinder	-11.0665
▁chopp	-11.0665
▁consist	-11.0665
▁gewickelt	-11.0665
▁remov	-11.0665
geländer	-11.0665
kräfte	-11.0665
▁Bibliothek	-11.0665
▁Breakdance	-11.0665
▁Caucasian	-11.0665
▁Fernglas	-11.0665
▁Hotdog	-11.0665
▁Jenga	-11.0665
▁Museum	-11.0665
▁Pfanne	-11.0665
▁Pizza	-11.0665
▁Rettungswesten	-11.0665
▁Schmutz	-11.0665
▁Streifen	-11.0665
▁Tablett	-11.0665
▁Trainer	-11.0665
▁Zöpfen	-11.0665
▁aufmerksam	-11.0665
▁binoculars	-11.0665
▁character	-11.0665
▁employee	-11.0665
▁exercise	-11.0665
▁gleichzeitig	-11.0665
▁pizza	-11.0665
▁ponytail	-11.0665
▁schlammige	-11.0665
▁scoop	-11.0665
▁terrain	-11.0665
▁tricycle	-11.0665
▁weaving	-11.0665
▁wheelbarrow	-11.0665
▁würde	-11.0665
▁örtliche	-11.0665
scarves	-11.0665
▁downtown	-11.0665
▁drinnen	-11.0665
▁pottery	-11.0665
▁slightly	-11.0665
▁Stehen	-11.0665
▁fisherman	-11.0665
▁target	-11.0665
▁Trink	-11.0665
ößt	-11.0665
▁airborne	-11.0665
▁webt	-11.0665
▁Innenstadt	-11.0665
▁kilt	-11.0665
▁east	-11.0665
▁Lager	-11.0665
▁job	-11.0665
▁Schmuck	-11.0665
▁snowsuit	-11.0665
▁write	-11.0665
▁disc	-11.0665
▁Segelboot	-11.0665
▁brows	-11.0665
▁Schach	-11.0665
▁colli	-11.0665
▁Badezimmer	-11.0665
▁schreiben	-11.0665
foto	-11.0665
▁Punkt	-11.0665
▁greifen	-11.0665
▁steel	-11.0665
brechen	-11.0665
▁hindurch	-11.0665
▁Locken	-11.0665
▁Schlauchboot	-11.0665
▁beginnt	-11.0665
▁fetch	-11.0665
▁Stirnband	-11.0665
▁Aufführung	-11.0665
▁gown	-11.0665
wohl	-11.0665
▁dough	-11.0666
▁bewegen	-11.0666
▁nature	-11.0666
▁Blue	-11.0666
▁Blase	-11.0666
▁Asiatinnen	-11.0666
▁aisle	-11.0666
▁engine	-11.0666
▁formation	-11.0666
▁formelle	-11.0666
▁Akustikgitarre	-11.0667
stange	-11.0667
▁nail	-11.0667
▁spielerisch	-11.0669
▁Food	-11.0669
▁Marktplatz	-11.067
▁closeup	-11.067
▁feiert	-11.0671
▁poor	-11.0671
netz	-11.0673
▁landet	-11.0673
▁vorbeigeht	-11.0674
▁trip	-11.0674
▁Asiatische	-11.0674
▁uniformierte	-11.0677
▁State	-11.0677
küche	-11.0678
verkehr	-11.0679
▁Rollschuh	-11.068
ugh	-11.068
flug	-11.0682
▁entlanggeht	-11.0682
▁Radrennen	-11.0684
▁Fang	-11.0689
▁semi	-11.0693
▁miss	-11.0696
▁Häusern	-11.0712
▁Ringer	-11.0713
ily	-11.0715
▁bush	-11.0724
▁Hocker	-11.0725
▁wig	-11.0727
▁Scheibe	-11.0728
▁photographed	-11.0733
▁gek	-11.0737
▁rag	-11.0742
▁leger	-11.0744
▁Dose	-11.0746
kette	-11.0747
▁Köpfen	-11.0748
▁It	-11.0761
▁ruhigen	-11.0761
üch	-11.077
▁nass	-11.0773
gging	-11.0776
▁Grimassen	-11.0777
▁sowi	-11.0782
▁Wach	-11.0784
▁create	-11.0788
▁Eier	-11.0789
▁teen	-11.0794
addle	-11.0803
▁cree	-11.0809
▁protesting	-11.0814
▁tourists	-11.0819
▁Students	-11.0819
▁Blättern	-11.0821
▁arch	-11.0826
cle	-11.086
kreis	-11.0893
▁zubereitet	-11.0934
pfer	-11.0936
▁gelbbraune	-11.094
▁drag	-11.0942
▁wei	-11.096
▁beleuchtet	-11.0969
essen	-11.1
▁motori	-11.1008
▁hut	-11.1008
rote	-11.1022
▁tur	-11.1062
heit	-11.1062
weil	-11.1081
ltere	-11.1133
ürz	-11.116
▁funn	-11.116
▁probier	-11.1171
▁Japan	-11.1189
cular	-11.1198
braune	-11.1213
▁aussehen	-11.1224
▁liegende	-11.1233
ligen	-11.1247
▁customer	-11.1259
▁lie	-11.1304
pfad	-11.1313
vo	-11.1328
▁Karte	-11.1334
▁Stühle	-11.1339
▁grin	-11.1342
Station	-11.1344
▁Auge	-11.1345
Zeichen	-11.1345
▁Turn	-11.1346
hängt	-11.1347
grill	-11.1349
▁ausgestreckt	-11.1349
fest	-11.1352
▁Freundin	-11.1356
ziehen	-11.1361
oth	-11.1368
▁Dudelsack	-11.1368
▁fu	-11.1369
eilen	-11.1382
öse	-11.1385
▁tropi	-11.1395
▁styl	-11.1395
utter	-11.1396
grauen	-11.1399
▁Top	-11.14
▁wh	-11.1407
▁Szene	-11.1421
rutsche	-11.1422
mobil	-11.1427
▁dunk	-11.1429
schutz	-11.1429
gepflasterte	-11.1433
brille	-11.1433
▁Flug	-11.1434
brett	-11.1434
▁Afrika	-11.1434
zeichen	-11.1434
Gesichtsbemalung	-11.1434
genommen	-11.1434
▁Achterbahn	-11.1434
▁Anhänger	-11.1434
▁Aufnahme	-11.1434
▁Bauarbeiten	-11.1434
▁Elder	-11.1434
▁Fänger	-11.1434
▁Inlineskates	-11.1434
▁Kettensäge	-11.1434
▁Laborkittel	-11.1434
▁Pudel	-11.1434
▁Saxofon	-11.1434
▁Strickmütze	-11.1434
▁Subway	-11.1434
▁Turban	-11.1434
▁Versammlung	-11.1434
▁Vortrag	-11.1434
▁Wakeboard	-11.1434
▁Warnweste	-11.1434
▁attention	-11.1434
▁bleachers	-11.1434
▁burgundy	-11.1434
▁chainsaw	-11.1434
▁debris	-11.1434
▁factory	-11.1434
▁geschmückt	-11.1434
▁gestikuliert	-11.1434
▁groceries	-11.1434
▁jubelt	-11.1434
▁klatscht	-11.1434
▁lecture	-11.1434
▁leotard	-11.1434
▁oven	-11.1434
▁portrait	-11.1434
▁rickshaw	-11.1434
▁service	-11.1434
▁sneakers	-11.1434
▁sniff	-11.1434
▁sunbath	-11.1434
▁telephone	-11.1434
▁though	-11.1434
▁ungewöhnliche	-11.1434
▁world	-11.1434
▁Flügel	-11.1434
▁Gymnastik	-11.1434
▁High	-11.1434
▁Pferdeschw	-11.1434
▁contest	-11.1434
▁loom	-11.1434
▁ticket	-11.1434
▁Shop	-11.1434
▁Werkstatt	-11.1434
▁Athlet	-11.1434
▁rauchen	-11.1434
▁crawl	-11.1434
▁Fackel	-11.1434
▁peak	-11.1434
▁Lacrosse	-11.1434
▁Ausstellung	-11.1434
▁brauen	-11.1434
▁gemusterte	-11.1434
▁dusk	-11.1434
Kittel	-11.1434
außen	-11.1434
▁Halstuch	-11.1434
▁assist	-11.1434
▁glid	-11.1434
▁Europe	-11.1434
▁spotted	-11.1434
▁Marathonläufer	-11.1434
▁Kabel	-11.1435
▁bilden	-11.1435
▁pay	-11.1435
▁Golfball	-11.1435
▁score	-11.1435
▁burn	-11.1435
▁bound	-11.1435
▁besucht	-11.1435
▁surg	-11.1437
▁Gehen	-11.1437
haube	-11.1437
▁Tüte	-11.1438
platte	-11.1439
▁Bass	-11.1439
▁mug	-11.144
▁ceremony	-11.144
▁overhead	-11.1441
▁waterfront	-11.1443
▁Asien	-11.1444
ständer	-11.1445
▁Sandwich	-11.1445
▁movie	-11.1445
▁Uhr	-11.1447
▁wings	-11.1448
▁messy	-11.1448
▁studying	-11.1451
▁Stern	-11.1452
▁coaster	-11.1453
▁chip	-11.1454
▁bevor	-11.1455
▁Video	-11.1456
▁Sieg	-11.1461
▁leckt	-11.1466
▁twi	-11.1466
gefahren	-11.1468
▁praying	-11.1471
▁Boxer	-11.1474
▁lower	-11.1479
▁careful	-11.1482
▁waterway	-11.1489
▁Kasse	-11.1512
▁meeting	-11.1513
▁Maler	-11.152
▁Bällen	-11.1525
▁Station	-11.153
cause	-11.1539
▁Hochzeitskleid	-11.1541
▁gestures	-11.1543
▁eben	-11.1544
▁mess	-11.1554
▁Softballspiel	-11.1574
▁Tänzerin	-11.1575
Spring	-11.1579
Rennfahrer	-11.1583
▁Schilder	-11.1588
▁graben	-11.1594
▁She	-11.1628
züg	-11.1654
▁dig	-11.1655
▁grillen	-11.1671
▁fashion	-11.1764
liegenden	-11.1781
▁Straßenarbeite	-11.1809
▁Kunstwerke	-11.1827
▁Kle	-11.1889
nehmen	-11.1893
▁boxer	-11.19
zw	-11.1908
▁Klein	-11.1963
▁Lu	-11.1977
▁listen	-11.2007
kund	-11.2035
▁Student	-11.205
▁tourist	-11.2089
▁chines	-11.2112
hole	-11.2117
▁Stroh	-11.2123
▁Bälle	-11.217
▁Köpfe	-11.217
▁Welpe	-11.2171
▁Hüte	-11.2173
▁America	-11.2173
instrument	-11.2174
horn	-11.2176
führen	-11.2178
coat	-11.218
gestreifte	-11.2181
house	-11.2181
springt	-11.2181
▁scaffold	-11.2184
Hut	-11.2185
▁meet	-11.2191
▁spin	-11.2208
▁strap	-11.2225
▁Tätowierung	-11.2228
▁mow	-11.2234
nzende	-11.2235
▁sweat	-11.2238
▁Reise	-11.224
▁Tiere	-11.2249
▁Beleuchtung	-11.2252
kuchen	-11.2253
becken	-11.2256
▁call	-11.2259
gehoben	-11.2262
▁Kreuz	-11.2264
scheibe	-11.2265
oberteil	-11.2267
▁Jahr	-11.2267
mount	-11.2267
▁Rettungs	-11.2267
▁acrobat	-11.2267
▁attracti	-11.2267
Seattle	-11.2267
uarterback	-11.2267
▁Imbiss	-11.2267
▁Rikscha	-11.2267
▁Schieß	-11.2267
▁Während	-11.2267
▁angeboten	-11.2267
▁await	-11.2267
▁descend	-11.2267
▁explor	-11.2267
▁motion	-11.2267
▁purchas	-11.2267
▁struggl	-11.2267
Präsentation	-11.2267
behälter	-11.2267
projekt	-11.2267
quoi	-11.2267
schlauch	-11.2267
schnüffelt	-11.2267
▁Anweisung	-11.2267
▁Asphalt	-11.2267
▁Bahngleis	-11.2267
▁Bambus	-11.2267
▁Banner	-11.2267
▁Draht	-11.2267
▁Fabrik	-11.2267
▁Female	-11.2267
▁Früchte	-11.2267
▁Haltung	-11.2267
▁Hinterbeine	-11.2267
▁Kellner	-11.2267
▁Kneipe	-11.2267
▁Lieferwagen	-11.2267
▁Namensschild	-11.2267
▁Operation	-11.2267
▁Pilot	-11.2267
▁Police	-11.2267
▁Schulkinder	-11.2267
▁Teilnehmer	-11.2267
▁Treppenstufen	-11.2267
▁Umhänge	-11.2267
▁Vergnügungspark	-11.2267
▁Wassermelone	-11.2267
▁Werfer	-11.2267
▁Yoga	-11.2267
▁ansieht	-11.2267
▁aufgereiht	-11.2267
▁backdrop	-11.2267
▁bamboo	-11.2267
▁banana	-11.2267
▁begeistert	-11.2267
▁begleitet	-11.2267
▁beisammen	-11.2267
▁celebration	-11.2267
▁crayon	-11.2267
▁elektrische	-11.2267
▁experiment	-11.2267
▁herumstehen	-11.2267
▁iPod	-11.2267
▁inspizier	-11.2267
▁juice	-11.2267
▁knife	-11.2267
▁kümmert	-11.2267
▁location	-11.2267
▁merchandise	-11.2267
▁monument	-11.2267
▁pigtails	-11.2267
▁poodle	-11.2267
▁prüft	-11.2267
▁pumpkin	-11.2267
▁reflektierende	-11.2267
▁sailboat	-11.2267
▁schnitzt	-11.2267
▁schützen	-11.2267
▁second	-11.2267
▁select	-11.2267
▁support	-11.2267
▁trolley	-11.2267
▁trübe	-11.2267
▁turban	-11.2267
▁umpire	-11.2267
▁unique	-11.2267
▁verletzt	-11.2267
▁watermelon	-11.2267
▁yoga	-11.2267
▁Banjo	-11.2267
▁Cello	-11.2267
▁Mexic	-11.2267
▁Nebel	-11.2267
▁School	-11.2267
▁banjo	-11.2267
▁bystanders	-11.2267
▁cello	-11.2267
▁deutsche	-11.2267
▁sauber	-11.2267
▁stoop	-11.2267
▁clapping	-11.2267
science	-11.2267
▁Einkäufer	-11.2267
▁lernt	-11.2267
▁Pink	-11.2267
▁crown	-11.2267
▁lacrosse	-11.2267
▁Engel	-11.2267
▁forehead	-11.2267
▁tomato	-11.2267
▁Spaziergang	-11.2267
▁Waschbecken	-11.2267
▁fremde	-11.2267
▁strange	-11.2267
▁emergency	-11.2267
▁slic	-11.2267
Feuerwehrauto	-11.2267
▁task	-11.2267
▁putzen	-11.2267
▁Snack	-11.2267
▁Apfel	-11.2267
▁incline	-11.2267
▁Fischernetz	-11.2267
▁schmale	-11.2268
ähne	-11.2268
▁hip	-11.2268
▁gemacht	-11.2268
sägt	-11.2268
▁blood	-11.2268
▁paddeln	-11.2268
▁Laster	-11.2268
▁Apple	-11.2268
▁Badeanzügen	-11.2268
▁Treppenhaus	-11.2268
▁Strom	-11.2268
▁NY	-11.2268
▁Sprungbrett	-11.2268
▁brother	-11.2268
▁Board	-11.2268
▁Staub	-11.2269
▁Jeep	-11.2269
Maschendrahtzaun	-11.2269
▁Warte	-11.2269
▁Stahl	-11.2269
▁countryside	-11.2269
▁eight	-11.2269
▁knall	-11.2269
taubsaug	-11.227
▁suchen	-11.227
▁alleyway	-11.227
▁chess	-11.227
▁Betonwand	-11.227
▁Bohr	-11.227
▁paperwork	-11.2271
kegel	-11.2271
▁abgestellt	-11.2271
▁fell	-11.2272
▁tut	-11.2273
▁soap	-11.2274
▁case	-11.2274
▁Papa	-11.2274
▁Schau	-11.2274
▁Fußballteam	-11.2275
▁firemen	-11.2275
▁wheelie	-11.2277
▁sold	-11.2278
▁Autobahn	-11.2278
▁Schaf	-11.2278
▁teal	-11.2278
▁Wasserrutsche	-11.2279
▁flat	-11.2279
ribal	-11.228
▁Knöpfen	-11.228
▁hotel	-11.2281
▁Ballett	-11.2281
▁Fahrradhelm	-11.2282
▁Sicht	-11.2288
▁gepunkteten	-11.2289
▁label	-11.2289
▁wares	-11.2296
▁mower	-11.2301
▁Mitarbeiter	-11.2303
gelenk	-11.2304
▁Reis	-11.2305
cial	-11.2306
▁Tätowierungen	-11.2306
zz	-11.2307
▁Asia	-11.2308
▁Gesichtern	-11.2309
▁tropische	-11.231
▁rust	-11.2312
▁packt	-11.2328
▁parasail	-11.2332
▁Dreirad	-11.2339
▁Klasse	-11.2341
wachsen	-11.2341
▁Medi	-11.2344
mannschaften	-11.2344
▁Geräten	-11.2348
▁stir	-11.2349
▁vordere	-11.2369
Ha	-11.2372
▁headdress	-11.2375
▁package	-11.2405
▁bemalten	-11.2406
▁dad	-11.2422
▁Türen	-11.2461
pass	-11.2491
▁legen	-11.2495
▁geöffnet	-11.2521
ith	-11.2593
ston	-11.2603
schmiert	-11.2609
uit	-11.2632
otte	-11.2642
head	-11.2645
▁Kleinkinder	-11.2683
▁angezogene	-11.2686
▁orientalisch	-11.2698
▁spa	-11.2705
▁fröhlich	-11.2705
stützt	-11.2707
▁port	-11.2776
echten	-11.2794
▁cro	-11.2794
chor	-11.2817
ppy	-11.2818
▁Kerle	-11.2837
▁versch	-11.2877
ular	-11.2891
grüne	-11.2892
▁find	-11.2919
▁niedrige	-11.2976
▁Nach	-11.2986
▁Alter	-11.3009
tuch	-11.3023
stab	-11.3038
Sicherheitsweste	-11.3041
▁dunkel	-11.3041
ritten	-11.306
spritzt	-11.3079
▁flache	-11.308
▁lock	-11.3083
erkun	-11.3086
graben	-11.3087
zeichnet	-11.3089
schwimmen	-11.3089
Outfit	-11.3089
Geschäft	-11.309
bike	-11.309
American	-11.3092
try	-11.3093
orange	-11.3093
ität	-11.3098
▁spike	-11.3105
▁Fahr	-11.3129
ängen	-11.3136
▁coast	-11.3154
tiefeln	-11.3172
▁wi	-11.3174
▁construct	-11.3175
künstler	-11.3175
▁Picknick	-11.3175
automaten	-11.3176
tafel	-11.3176
nterwäsche	-11.3176
geschoben	-11.3176
▁Beachvolleyball	-11.3176
▁Experiment	-11.3176
▁assembl	-11.3176
▁guide	-11.3176
▁judge	-11.3176
▁notebook	-11.3176
▁pocket	-11.3176
▁rifle	-11.3176
▁unusual	-11.3176
Baseballschläger	-11.3176
Festival	-11.3176
Krankenschwester	-11.3176
gespannt	-11.3176
schüssel	-11.3176
wettbewerb	-11.3176
wohn	-11.3176
▁Batman	-11.3176
▁Eiswaffel	-11.3176
▁Erzeugnisse	-11.3176
▁Felsvorsprung	-11.3176
▁Geschwi	-11.3176
▁Händchen	-11.3176
▁Miami	-11.3176
▁Monopoly	-11.3176
▁Möwe	-11.3176
▁Namen	-11.3176
▁Pfeil	-11.3176
▁Rahmen	-11.3176
▁Runners	-11.3176
▁Röhre	-11.3176
▁Smoking	-11.3176
▁Stunt	-11.3176
▁Telefonzelle	-11.3176
▁Türöffnung	-11.3176
▁Ureinwohner	-11.3176
▁Vorderseite	-11.3176
▁Vorrichtung	-11.3176
▁Webstuhl	-11.3176
▁Zylinder	-11.3176
▁abgeworfen	-11.3176
▁accompani	-11.3176
▁arcade	-11.3176
▁attraktive	-11.3176
▁auditorium	-11.3176
▁bräunliche	-11.3176
▁cheese	-11.3176
▁christmas	-11.3176
▁elevat	-11.3176
▁expression	-11.3176
▁gefleckte	-11.3176
▁huddle	-11.3176
▁laundromat	-11.3176
▁möglicherweise	-11.3176
▁parallel	-11.3176
▁präsentiert	-11.3176
▁puppies	-11.3176
▁rapids	-11.3176
▁rollerblading	-11.3176
▁rückwärts	-11.3176
▁sammeln	-11.3176
▁schwebt	-11.3176
▁schütteln	-11.3176
▁serviert	-11.3176
▁säuber	-11.3176
▁traurig	-11.3176
▁underwear	-11.3176
▁unordentlich	-11.3176
▁vergnügt	-11.3176
▁visible	-11.3176
▁weapon	-11.3176
▁Kragen	-11.3176
▁Lasso	-11.3176
▁Lippen	-11.3176
▁dribbl	-11.3176
▁handrail	-11.3176
▁measur	-11.3176
▁pirate	-11.3176
▁versteck	-11.3176
▁Banane	-11.3176
▁besteht	-11.3176
▁schwingen	-11.3176
▁yarn	-11.3176
▁Perlen	-11.3176
▁gesprungen	-11.3176
▁separate	-11.3176
▁staubige	-11.3176
▁verteilt	-11.3176
▁Beamte	-11.3176
▁butcher	-11.3176
▁surgery	-11.3176
▁potato	-11.3176
▁Werbe	-11.3176
▁Lagerfeuer	-11.3176
füllen	-11.3176
▁Rosa	-11.3176
▁rudern	-11.3176
▁schlecht	-11.3176
▁supplies	-11.3176
▁verzierte	-11.3176
▁Tracht	-11.3176
▁heavi	-11.3176
▁rice	-11.3176
leitung	-11.3176
▁Ofen	-11.3176
▁Turnschuhen	-11.3176
▁Untergrund	-11.3176
▁medium	-11.3176
▁Begleit	-11.3176
▁Walk	-11.3176
▁Bordstein	-11.3176
▁Kante	-11.3176
▁Ziegelsteine	-11.3176
gitter	-11.3177
becher	-11.3177
▁Erdhügel	-11.3177
▁joy	-11.3177
▁Horn	-11.3177
▁grauhaarige	-11.3177
▁pedal	-11.3177
rtikel	-11.3177
▁Nagel	-11.3177
oogie	-11.3177
▁attack	-11.3177
▁transportiert	-11.3177
▁chalkboard	-11.3177
▁Dirt	-11.3177
▁teilnehmen	-11.3178
▁Schlagmann	-11.3178
▁Parti	-11.3178
▁Brettspiel	-11.3178
▁Karussell	-11.3178
▁suspenders	-11.3178
▁spanische	-11.3178
dition	-11.3178
▁Redner	-11.3178
▁cli	-11.3178
▁Stofftier	-11.3178
▁politi	-11.3178
▁Dunk	-11.3178
▁Geländewagen	-11.3178
▁meiste	-11.3178
▁dump	-11.3179
▁shoreline	-11.3179
phon	-11.3179
▁human	-11.318
▁reflection	-11.318
reckt	-11.318
▁homeless	-11.318
▁Obststand	-11.3181
▁Ruder	-11.3181
burg	-11.3181
▁Fußballdress	-11.3181
ansammlung	-11.3181
▁chatting	-11.3181
sichtig	-11.3182
Saiteninstrument	-11.3182
▁descent	-11.3182
rimmed	-11.3182
▁sunlight	-11.3183
▁Einsatz	-11.3183
▁baum	-11.3183
wolke	-11.3184
pult	-11.3184
▁Dock	-11.3184
▁highway	-11.3185
▁stall	-11.3186
▁retriev	-11.3186
▁lens	-11.3186
mauer	-11.3186
▁Dress	-11.3187
▁Holzbank	-11.3187
▁Bord	-11.3189
▁Fass	-11.3192
▁TV	-11.3192
▁Pass	-11.3192
▁geschnitten	-11.3194
▁Eiscreme	-11.3194
ix	-11.3196
▁screaming	-11.3197
▁ador	-11.3197
▁angebracht	-11.3198
▁squat	-11.3199
▁Gläsern	-11.32
▁Schnur	-11.32
▁Stab	-11.3201
▁treiben	-11.3201
fang	-11.3205
▁bietet	-11.3207
▁swa	-11.3207
▁fern	-11.3208
▁langärmeligen	-11.3209
▁closely	-11.3212
▁single	-11.3212
▁defender	-11.3213
▁Gericht	-11.3213
▁Post	-11.3218
▁Rast	-11.322
überdachte	-11.3223
▁folded	-11.3226
lapp	-11.3229
säge	-11.3231
▁furr	-11.324
▁carve	-11.3245
▁goldfarbene	-11.3247
gläser	-11.325
ehrt	-11.3251
▁dropp	-11.3261
▁lifted	-11.3278
▁hind	-11.3319
kopf	-11.3323
wart	-11.3323
▁ballet	-11.3364
schiedenfarbige	-11.3385
▁speaker	-11.34
▁stepp	-11.3402
▁ruhige	-11.3422
pflanzen	-11.3445
schuhen	-11.3451
zunehmen	-11.3456
Straßenverkäufer	-11.3481
▁fein	-11.3514
aune	-11.3536
▁late	-11.3561
▁Schneeschuhe	-11.3681
rädern	-11.3735
iko	-11.379
▁flo	-11.3791
▁Nati	-11.3811
dding	-11.383
rmel	-11.3869
▁bedruckte	-11.3873
kommen	-11.3897
▁Asiat	-11.39
▁Bad	-11.3921
farbig	-11.3936
▁neu	-11.3949
▁sip	-11.3991
▁candle	-11.3999
führung	-11.4049
uell	-11.4059
▁even	-11.4072
▁Pflanze	-11.4082
folgt	-11.4086
Scheibe	-11.4087
schlafen	-11.4088
hammer	-11.4089
guckt	-11.409
body	-11.409
Kleidung	-11.409
gucken	-11.409
hinter	-11.409
green	-11.4091
zieht	-11.41
▁sandige	-11.4105
punkt	-11.4109
ional	-11.413
back	-11.4131
▁padd	-11.4137
▁amüsier	-11.4138
▁kau	-11.4162
violett	-11.4163
grün	-11.4165
▁apart	-11.4167
zaun	-11.417
hepherd	-11.4172
pectators	-11.4173
▁instruct	-11.4173
▁conduct	-11.4173
▁transport	-11.4174
treppe	-11.4175
edestrians	-11.4175
▁sculpt	-11.4176
brücke	-11.4176
drängt	-11.4176
▁Volks	-11.4176
Obama	-11.4176
trommel	-11.4176
▁British	-11.4176
▁harvest	-11.4176
▁launch	-11.4176
▁maneuver	-11.4176
bändern	-11.4176
digkeit	-11.4176
ffentlichkeit	-11.4176
konzert	-11.4176
ntfern	-11.4176
wissenschaftlich	-11.4176
▁Auslage	-11.4176
▁Bergsteiger	-11.4176
▁Bruder	-11.4176
▁Canad	-11.4176
▁Couple	-11.4176
▁Demonstrant	-11.4176
▁Design	-11.4176
▁Dämmerung	-11.4176
▁Gipfel	-11.4176
▁Hoodie	-11.4176
▁Hüfte	-11.4176
▁Jogger	-11.4176
▁Kiefer	-11.4176
▁Kühl	-11.4176
▁Leinwand	-11.4176
▁Obdachlose	-11.4176
▁Olympische	-11.4176
▁Player	-11.4176
▁Porträt	-11.4176
▁Pullunder	-11.4176
▁Schaulustige	-11.4176
▁Schmetterling	-11.4176
▁Stelzen	-11.4176
▁Strumpfhose	-11.4176
▁Verteidiger	-11.4176
▁Zahn	-11.4176
▁abgebildet	-11.4176
▁activity	-11.4176
▁bewaldete	-11.4176
▁blazer	-11.4176
▁bouquet	-11.4176
▁canvas	-11.4176
▁contraption	-11.4176
▁curve	-11.4176
▁earphones	-11.4176
▁elektronische	-11.4176
▁embracing	-11.4176
▁erhobene	-11.4176
▁erklimmen	-11.4176
▁facility	-11.4176
▁frozen	-11.4176
▁gallery	-11.4176
▁injured	-11.4176
▁interesting	-11.4176
▁jeweil	-11.4176
▁kratzt	-11.4176
▁leggings	-11.4176
▁ließt	-11.4176
▁lobby	-11.4176
▁löschen	-11.4176
▁medizinische	-11.4176
▁militärische	-11.4176
▁modisch	-11.4176
▁neugeborene	-11.4176
▁passersby	-11.4176
▁patron	-11.4176
▁pillar	-11.4176
▁quarterback	-11.4176
▁quiet	-11.4176
▁recline	-11.4176
▁schipp	-11.4176
▁schneit	-11.4176
▁section	-11.4176
▁senior	-11.4176
▁stilts	-11.4176
▁stolz	-11.4176
▁trashcan	-11.4176
▁valley	-11.4176
▁verbunden	-11.4176
▁wakeboard	-11.4176
▁workshop	-11.4176
gepackt	-11.4176
▁Drink	-11.4176
▁Fontäne	-11.4176
▁Kabine	-11.4176
▁Leggings	-11.4176
▁Sattel	-11.4176
▁angemalte	-11.4176
▁flash	-11.4176
▁highchair	-11.4176
▁special	-11.4176
▁trifft	-11.4176
▁tripod	-11.4176
▁unterrichtet	-11.4176
▁blurr	-11.4176
▁fischt	-11.4176
▁verwenden	-11.4176
▁emerg	-11.4176
▁interagier	-11.4176
▁lemon	-11.4176
▁letzte	-11.4176
heruntergekommen	-11.4176
▁scrap	-11.4176
▁bockende	-11.4176
▁Kilt	-11.4176
▁Laterne	-11.4176
▁einfach	-11.4176
▁mischt	-11.4176
▁Reklametafel	-11.4176
▁Unfall	-11.4176
▁monkey	-11.4176
▁Käse	-11.4176
▁dumpster	-11.4176
▁Ampel	-11.4176
▁snap	-11.4176
▁Freizeitpark	-11.4176
▁twirl	-11.4177
loseup	-11.4177
lannel	-11.4177
▁Garn	-11.4177
▁than	-11.4177
▁Klappstuhl	-11.4177
▁sideways	-11.4177
▁Essensstand	-11.4177
▁Waschmaschine	-11.4177
greif	-11.4177
▁organiz	-11.4177
▁Mülleimer	-11.4177
▁Ziellinie	-11.4177
▁Esstisch	-11.4177
▁spotlight	-11.4177
uad	-11.4177
schlacht	-11.4177
zoo	-11.4177
▁need	-11.4177
▁kauert	-11.4177
▁transportation	-11.4177
▁Schutt	-11.4177
▁festgebunden	-11.4177
▁Ziegelwand	-11.4177
tackelt	-11.4177
▁rally	-11.4177
▁Marke	-11.4177
▁rutschen	-11.4177
▁Steintreppe	-11.4177
▁Schiene	-11.4177
▁Unterhemd	-11.4177
▁Lots	-11.4178
▁Rasier	-11.4178
theke	-11.4178
▁erleuchtete	-11.4178
▁Block	-11.4178
▁Winterjacke	-11.4178
▁Rugbyspieler	-11.4178
chnitt	-11.4178
▁Metallstange	-11.4178
▁artwork	-11.4178
▁diner	-11.4179
▁Holzzaun	-11.4179
▁Landstraße	-11.4179
nähe	-11.4179
▁quickly	-11.4179
▁driveway	-11.4179
▁Axt	-11.4179
▁Straßenseite	-11.418
▁Aufzug	-11.418
▁staff	-11.418
▁Streich	-11.4181
▁Turm	-11.4181
▁Innen	-11.4181
▁battl	-11.4181
▁tail	-11.4181
garten	-11.4181
ingham	-11.4182
▁rooftop	-11.4182
▁sorg	-11.4182
▁Farm	-11.4183
▁done	-11.4183
▁erhält	-11.4184
▁Holzboden	-11.4184
▁Khakihose	-11.4185
nude	-11.4185
▁steer	-11.4185
▁Sari	-11.4187
▁cable	-11.4188
▁wenig	-11.4188
▁mass	-11.4188
kiste	-11.4189
junge	-11.4189
▁Segel	-11.4192
▁gesehen	-11.4192
▁Bill	-11.4193
▁roadside	-11.4194
▁branches	-11.4195
▁Bandmitglieder	-11.4195
▁approaches	-11.4201
▁workout	-11.4203
▁Gleisen	-11.4203
▁fischen	-11.4207
▁größeren	-11.4208
bogen	-11.4211
spitze	-11.4212
▁filmt	-11.4222
▁tutu	-11.4227
▁formt	-11.423
oney	-11.4239
▁Sommer	-11.4241
▁streichen	-11.4249
▁Gitarristen	-11.4254
▁Schritt	-11.4257
▁passiert	-11.427
Wel	-11.428
Schutzausrüstung	-11.4289
▁fit	-11.4295
▁musta	-11.4312
▁navigate	-11.4332
▁darin	-11.4342
▁real	-11.4345
▁squa	-11.4361
▁strike	-11.4388
▁Fu	-11.4396
▁mind	-11.4402
spi	-11.4408
wend	-11.4409
▁wirk	-11.4455
▁main	-11.4462
ücke	-11.4467
▁drape	-11.4486
mach	-11.452
ngles	-11.453
▁Go	-11.4655
loch	-11.4657
training	-11.4689
▁zweite	-11.4698
▁power	-11.4721
▁classic	-11.4836
tzen	-11.4837
dults	-11.4877
iki	-11.4891
▁gaz	-11.4919
maske	-11.4959
konstruktion	-11.5006
schl	-11.501
▁bark	-11.5063
▁sad	-11.5079
bett	-11.5085
legen	-11.5118
hütte	-11.5143
▁groß	-11.5167
▁drop	-11.5184
▁bicycl	-11.5184
▁kalte	-11.5192
▁steile	-11.5192
nimmt	-11.52
Team	-11.52
werfen	-11.5201
gibt	-11.5201
Mannschaft	-11.5201
girl	-11.5201
Basketball	-11.5201
striped	-11.5201
field	-11.5201
person	-11.5202
party	-11.5203
▁buck	-11.5212
geben	-11.5213
friend	-11.5216
▁spazier	-11.5225
▁sprinkl	-11.5227
▁Mitglied	-11.5236
haarige	-11.525
▁Hockeyspiel	-11.5251
▁Handwerk	-11.5256
▁näher	-11.5266
▁Geburtstag	-11.5268
Wh	-11.5271
leuchtet	-11.5276
▁Flip	-11.528
▁dri	-11.5284
▁chin	-11.5284
▁demonstrat	-11.5286
schmuck	-11.5286
gebunden	-11.5286
zimmer	-11.5287
schreib	-11.5287
▁horizon	-11.5287
▁monk	-11.5287
streifen	-11.5287
▁squeez	-11.5287
technik	-11.5287
▁Kraft	-11.5287
▁University	-11.5287
▁Zusammen	-11.5287
▁concentrat	-11.5287
▁content	-11.5287
▁förmlich	-11.5287
▁gebückt	-11.5287
▁unglücklich	-11.5287
fahrrad	-11.5287
fältig	-11.5287
karren	-11.5287
putzer	-11.5287
schützer	-11.5287
struktur	-11.5287
vorrichtung	-11.5287
▁Absperrung	-11.5287
▁Bauernmarkt	-11.5287
▁Begeisterung	-11.5287
▁Betrachter	-11.5287
▁Beutel	-11.5287
▁Bicyclist	-11.5287
▁Bündel	-11.5287
▁Concert	-11.5287
▁Darbietung	-11.5287
▁Felsbrocken	-11.5287
▁Flussufer	-11.5287
▁Forscher	-11.5287
▁Garage	-11.5287
▁Gehstock	-11.5287
▁Hamburger	-11.5287
▁Irokesenschnitt	-11.5287
▁Kapuzenpullover	-11.5287
▁Karohemd	-11.5287
▁Konstruktion	-11.5287
▁Käfig	-11.5287
▁Muslim	-11.5287
▁Nachbarschaft	-11.5287
▁Neugeborenes	-11.5287
▁Nike	-11.5287
▁Nudel	-11.5287
▁Speedo	-11.5287
▁Stativ	-11.5287
▁Stromschnellen	-11.5287
▁Wollmütze	-11.5287
▁afternoon	-11.5287
▁akustische	-11.5287
▁anhaben	-11.5287
▁ausgezogen	-11.5287
▁bedroom	-11.5287
▁belongings	-11.5287
▁breakdancing	-11.5287
▁butterfly	-11.5287
▁bürste	-11.5287
▁caucasian	-11.5287
▁chocolate	-11.5287
▁chopsticks	-11.5287
▁congregate	-11.5287
▁digital	-11.5287
▁dribbelt	-11.5287
▁entfernen	-11.5287
▁erhöht	-11.5287
▁folgen	-11.5287
▁getroffen	-11.5287
▁helicopter	-11.5287
▁illuminat	-11.5287
▁industri	-11.5287
▁kastanienbraune	-11.5287
▁morning	-11.5287
▁muskul	-11.5287
▁möchte	-11.5287
▁numer	-11.5287
▁nächtliche	-11.5287
▁pencil	-11.5287
▁pilot	-11.5287
▁schlendert	-11.5287
▁schmetter	-11.5287
▁schützt	-11.5287
▁seagull	-11.5287
▁smooth	-11.5287
▁sparring	-11.5287
▁umzäunte	-11.5287
▁unhappy	-11.5287
▁unload	-11.5287
▁vergnügen	-11.5287
▁vorführt	-11.5287
▁völlig	-11.5287
ändige	-11.5287
▁Disney	-11.5287
▁Lokal	-11.5287
▁bathtub	-11.5287
▁bedienen	-11.5287
▁built	-11.5287
▁foliage	-11.5287
▁gesturing	-11.5287
▁know	-11.5287
▁lasso	-11.5287
▁pinata	-11.5287
▁rollerblades	-11.5287
▁shawl	-11.5287
schnapp	-11.5287
▁Plate	-11.5287
▁every	-11.5287
▁heraushängen	-11.5287
▁pads	-11.5287
▁waist	-11.5287
▁Morgen	-11.5287
▁Mönch	-11.5287
▁Pelz	-11.5287
▁bindet	-11.5287
▁gefangen	-11.5287
▁Verkaufsstand	-11.5287
▁mechanic	-11.5287
▁cherry	-11.5287
turnier	-11.5287
▁border	-11.5287
▁umringt	-11.5287
▁erreichen	-11.5287
▁Schlafzimmer	-11.5287
ahrschein	-11.5287
▁Camping	-11.5287
▁wrist	-11.5287
▁Pirat	-11.5287
▁Perücke	-11.5288
▁letter	-11.5288
▁pretend	-11.5288
kraft	-11.5288
▁ATM	-11.5288
▁decorations	-11.5288
▁riot	-11.5288
▁Wildwasser	-11.5288
▁hocken	-11.5288
▁dränge	-11.5288
▁season	-11.5288
▁Flipflops	-11.5288
östliche	-11.5288
▁historische	-11.5288
▁gemalt	-11.5288
▁Nachrichten	-11.5288
▁Oberfläche	-11.5288
blöcke	-11.5288
▁cannon	-11.5288
▁synchroniz	-11.5288
▁daran	-11.5288
▁sichtbar	-11.5288
▁rostige	-11.5288
▁Plüschtier	-11.5288
▁Paket	-11.5288
▁Polohemd	-11.5288
mitarbeiter	-11.5288
▁Außenbereich	-11.5288
▁spül	-11.5288
▁Aufgabe	-11.5288
▁Mitspieler	-11.5288
▁Regenbogen	-11.5288
▁Ziegelgebäude	-11.5289
▁Speer	-11.5289
▁Ansicht	-11.5289
▁Fußballtrikot	-11.5289
▁raincoat	-11.5289
▁Tanzfläche	-11.5289
▁beret	-11.5289
▁Spiegelbild	-11.5289
▁Studio	-11.5289
▁Laufbahn	-11.5289
▁install	-11.5289
▁angehalten	-11.5289
▁Rasenfläche	-11.529
späht	-11.529
▁sonnen	-11.529
▁stump	-11.529
eister	-11.529
reihe	-11.529
▁hook	-11.529
▁langärmlige	-11.529
▁protestiert	-11.529
▁Sandburg	-11.529
▁icy	-11.529
▁gelangen	-11.529
Work	-11.5291
▁Kopfschmuck	-11.5291
▁grasp	-11.5291
▁Sandhügel	-11.5291
▁Kampfsportler	-11.5291
▁Tennisplatz	-11.5292
▁braid	-11.5293
▁Shepherd	-11.5293
▁rake	-11.5293
kasten	-11.5293
▁Musikgruppe	-11.5294
▁file	-11.5295
▁Ober	-11.5297
▁Eiswagen	-11.5297
▁trench	-11.5298
▁pathway	-11.5298
▁arriv	-11.5298
rrangement	-11.5299
count	-11.5299
▁Grau	-11.5299
▁want	-11.53
▁Wasserbecken	-11.5303
▁cott	-11.5303
zzy	-11.5308
▁checkers	-11.5308
▁raus	-11.5308
▁Patienten	-11.5308
▁Wohnung	-11.531
miling	-11.5315
▁Wasserfläche	-11.5316
▁Arab	-11.5318
▁bestellen	-11.5319
▁Inder	-11.5328
▁mur	-11.5328
eimer	-11.5331
▁hervor	-11.5341
▁brushes	-11.5345
▁think	-11.5347
▁wieder	-11.535
▁crack	-11.5351
▁cookie	-11.5352
heel	-11.5353
▁Großer	-11.536
▁varie	-11.536
▁angezogener	-11.5395
▁Pose	-11.54
inting	-11.5411
aint	-11.5418
▁cave	-11.5418
artender	-11.5422
Logo	-11.5429
anyon	-11.543
ohawk	-11.5446
▁Tennisschuh	-11.5451
▁appl	-11.5461
Car	-11.5461
oße	-11.5471
▁Mit	-11.5472
▁verbring	-11.5512
bell	-11.5519
day	-11.5533
truck	-11.555
▁vorübergeh	-11.5571
Holzkonstruktion	-11.5577
gefeuert	-11.5579
▁yo	-11.558
besuch	-11.5594
▁Wett	-11.5633
▁farbenfroh	-11.5637
üste	-11.5673
front	-11.5675
▁Schweiß	-11.57
▁Rac	-11.5734
werkzeug	-11.5791
▁shi	-11.5801
▁Nin	-11.5832
agged	-11.585
▁gerichtet	-11.587
owl	-11.5873
▁albern	-11.5881
▁bake	-11.5888
▁bestehend	-11.5929
fashioned	-11.593
iegt	-11.5959
▁blaugrüne	-11.5961
hof	-11.6021
▁ruhig	-11.6038
▁verlassene	-11.6045
▁Bauwerk	-11.6059
▁schwimmende	-11.6094
▁splash	-11.6103
▁Chi	-11.6114
ränkte	-11.6209
feuert	-11.623
▁sleep	-11.628
▁lea	-11.6317
cap	-11.6345
ipping	-11.6348
ütze	-11.6353
▁gesture	-11.6359
▁Kid	-11.6398
▁frei	-11.6402
amerikanische	-11.6412
▁indian	-11.6429
kommt	-11.6441
▁Stiefel	-11.6443
▁India	-11.6443
▁hellblaue	-11.6445
tragen	-11.6446
crew	-11.6449
paved	-11.645
hoop	-11.645
▁Taube	-11.645
cast	-11.6451
Football	-11.6451
wirft	-11.6451
orangefarbenen	-11.6452
piece	-11.6453
view	-11.6455
Band	-11.6456
eginn	-11.6461
Bron	-11.6489
irefighters	-11.6491
▁größer	-11.6498
▁Frei	-11.6507
caf	-11.6509
▁Footballspiel	-11.652
▁compan	-11.6523
▁Khaki	-11.6526
agle	-11.6529
äufer	-11.653
▁clut	-11.6534
saugt	-11.6534
ctors	-11.6535
▁vend	-11.6536
edient	-11.6536
verkauf	-11.6536
▁Schlaf	-11.6536
▁Tank	-11.6537
▁Rod	-11.6537
▁cigar	-11.6537
zentrum	-11.6537
▁Num	-11.6537
▁Oldtimer	-11.6537
▁Supermarkt	-11.6537
▁Urlaub	-11.6537
▁Yamaha	-11.6537
▁communicat	-11.6537
▁elaborate	-11.6537
▁hüpfen	-11.6537
▁telefonieren	-11.6537
▁vibrant	-11.6537
Flops	-11.6537
bluse	-11.6537
führer	-11.6537
klammert	-11.6537
objekt	-11.6537
orridor	-11.6537
papier	-11.6537
pfosten	-11.6537
wählt	-11.6537
ylophon	-11.6537
zündet	-11.6537
▁Aktentasche	-11.6537
▁Backflip	-11.6537
▁Baumstumpf	-11.6537
▁Blaskapelle	-11.6537
▁Domino	-11.6537
▁Dunkelheit	-11.6537
▁Feuerstelle	-11.6537
▁Fotograph	-11.6537
▁Fächer	-11.6537
▁Glatze	-11.6537
▁Gleichgewicht	-11.6537
▁Griff	-11.6537
▁Horizont	-11.6537
▁Hängematte	-11.6537
▁KitchenAid	-11.6537
▁Marmor	-11.6537
▁Musician	-11.6537
▁Müllcontainer	-11.6537
▁Pfeife	-11.6537
▁Pistole	-11.6537
▁Regal	-11.6537
▁Reparatur	-11.6537
▁Rollerskate	-11.6537
▁Schlucht	-11.6537
▁Smartphone	-11.6537
▁Spielsachen	-11.6537
▁Starbucks	-11.6537
▁Teddybär	-11.6537
▁Vendor	-11.6537
▁Verschiedene	-11.6537
▁Videokamera	-11.6537
▁Wassersprenger	-11.6537
▁Wippe	-11.6537
▁Yellow	-11.6537
▁Zahnbürste	-11.6537
▁Zeichnung	-11.6537
▁Zeremonie	-11.6537
▁Zigarre	-11.6537
▁abandoned	-11.6537
▁accident	-11.6537
▁ascend	-11.6537
▁ausländische	-11.6537
▁babies	-11.6537
▁befindliche	-11.6537
▁blühende	-11.6537
▁briefcase	-11.6537
▁burgunderrote	-11.6537
▁campfire	-11.6537
▁chisel	-11.6537
▁complex	-11.6537
▁connect	-11.6537
▁cupcake	-11.6537
▁cycling	-11.6537
▁dekorative	-11.6537
▁destination	-11.6537
▁dinosaur	-11.6537
▁dirigier	-11.6537
▁easel	-11.6537
▁eingewickelt	-11.6537
▁einheimische	-11.6537
▁erklimmt	-11.6537
▁establishment	-11.6537
▁faulenzen	-11.6537
▁geflochtene	-11.6537
▁gefrorene	-11.6537
▁gesenkte	-11.6537
▁greet	-11.6537
▁hammock	-11.6537
▁harmonica	-11.6537
▁hochhackige	-11.6537
▁hydrant	-11.6537
▁irgendwo	-11.6537
▁kanadische	-11.6537
▁kimono	-11.6537
▁krabbel	-11.6537
▁kämpft	-11.6537
▁laboratory	-11.6537
▁lohfarbene	-11.6537
▁maintenance	-11.6537
▁mittelgroße	-11.6537
▁powder	-11.6537
▁pyramid	-11.6537
▁rabbit	-11.6537
▁register	-11.6537
▁religious	-11.6537
▁rührt	-11.6537
▁schwenken	-11.6537
▁shield	-11.6537
▁skull	-11.6537
▁toothbrush	-11.6537
▁tournament	-11.6537
▁turkey	-11.6537
▁tuxedo	-11.6537
▁underground	-11.6537
▁verwirrt	-11.6537
▁victory	-11.6537
▁warehouse	-11.6537
▁xylophone	-11.6537
▁öffnen	-11.6537
onvention	-11.6537
▁Buchstaben	-11.6537
▁Deere	-11.6537
▁Kaufhaus	-11.6537
▁Oklahoma	-11.6537
▁Wildnis	-11.6537
▁darüber	-11.6537
▁mannequin	-11.6537
▁marble	-11.6537
▁treadmill	-11.6537
rahmen	-11.6537
▁extend	-11.6537
▁gelegenen	-11.6537
▁gewinnen	-11.6537
▁jeep	-11.6537
▁sample	-11.6537
▁shoppers	-11.6537
▁year	-11.6537
rosscountry	-11.6537
vollständig	-11.6537
▁Eisenbahn	-11.6537
▁Hispan	-11.6537
▁Kaffeetasse	-11.6537
▁Sonnenlicht	-11.6537
▁handbag	-11.6537
▁Hosenträgern	-11.6537
▁Indien	-11.6537
▁Rosen	-11.6537
▁bib	-11.6537
▁specta	-11.6537
▁troop	-11.6537
Bahnstation	-11.6537
terior	-11.6537
ußgängerübergang	-11.6537
▁Backsteinmauer	-11.6537
▁Gurt	-11.6537
▁gespielt	-11.6537
▁turtle	-11.6537
safe	-11.6537
▁lernen	-11.6537
▁Chef	-11.6538
▁Blech	-11.6538
▁Life	-11.6538
▁bowtie	-11.6538
▁tarp	-11.6538
▁plank	-11.6538
▁welche	-11.6538
zuheben	-11.6538
league	-11.6538
▁toilet	-11.6538
▁Badekappe	-11.6538
▁olive	-11.6538
eopard	-11.6538
pfleg	-11.6538
▁Wanne	-11.6538
▁beißen	-11.6538
▁Oberhemd	-11.6538
kante	-11.6538
▁flame	-11.6538
ansicht	-11.6538
▁cash	-11.6538
▁scrubs	-11.6538
▁Unterhaltung	-11.6538
▁nun	-11.6538
▁Geldautomaten	-11.6538
▁Braun	-11.6538
▁Billard	-11.6538
trennt	-11.6538
▁Schutzweste	-11.6538
▁tracksuit	-11.6538
▁rush	-11.6538
▁Sommertag	-11.6538
▁Militäruniform	-11.6538
▁Grünfläche	-11.6538
▁sari	-11.6538
▁sledding	-11.6538
▁Europa	-11.6538
▁Besuch	-11.6538
▁Vorführung	-11.6538
▁Hochstuhl	-11.6538
▁Straßenszene	-11.6538
inivan	-11.6538
▁yell	-11.6538
schlendern	-11.6539
▁Ziegelbau	-11.6539
▁Betonmauer	-11.6539
▁schlanke	-11.6539
▁Laufband	-11.6539
▁envi	-11.6539
▁Neben	-11.6539
▁Randstein	-11.6539
▁Popcorn	-11.6539
▁Spanish	-11.654
▁Look	-11.654
▁Straßenfest	-11.654
▁mohawk	-11.654
▁daytime	-11.654
▁Feldhockey	-11.654
▁Sporthalle	-11.654
▁Klapp	-11.6541
▁stance	-11.6541
lammen	-11.6541
▁rack	-11.6541
▁conductor	-11.6541
▁Busses	-11.6541
richter	-11.6541
▁Holzbrett	-11.6541
▁hellgrünen	-11.6541
▁Schwein	-11.6542
▁Fischmarkt	-11.6543
▁Baseballfeld	-11.6543
▁shout	-11.6543
▁Mopp	-11.6543
orgi	-11.6544
▁pony	-11.6544
▁flock	-11.6544
▁OP	-11.6544
▁Osten	-11.6545
▁ausgeschnittene	-11.6545
▁Steinbank	-11.6545
▁Straßenrennen	-11.6545
▁cries	-11.6546
ällen	-11.6546
wiese	-11.6546
▁Straßenbahn	-11.6547
▁capture	-11.6547
▁stretches	-11.6547
▁cord	-11.6548
▁Kopfstein	-11.6549
badet	-11.6549
▁Lenk	-11.6551
▁company	-11.6552
▁projector	-11.6552
▁Stadtpark	-11.6553
zuhören	-11.6553
▁Waffel	-11.6553
▁segel	-11.6554
▁lion	-11.6554
▁bridesmaid	-11.6554
▁Wasch	-11.6555
▁baton	-11.6556
▁split	-11.6558
▁Kick	-11.656
gestürzte	-11.6562
▁Mich	-11.6565
▁pig	-11.6565
▁herrliche	-11.6566
foam	-11.6572
haltung	-11.6572
lender	-11.6572
▁Big	-11.6578
▁tell	-11.6578
arbie	-11.6594
▁logo	-11.66
ugging	-11.6609
Rad	-11.6611
▁sortiert	-11.6623
Turnier	-11.6636
▁suck	-11.6649
▁indianische	-11.665
zusehen	-11.6671
▁complet	-11.6712
▁verleg	-11.6722
▁hellrote	-11.6729
▁poke	-11.6738
▁weigh	-11.6778
▁türkise	-11.6781
▁entwe	-11.6823
gefallene	-11.6828
suche	-11.6831
▁hellgelbe	-11.6838
lanke	-11.6847
gabe	-11.6874
Grand	-11.6923
feier	-11.697
cla	-11.6987
▁Pri	-11.7101
▁rid	-11.7159
Fallschirmspring	-11.7297
▁Spitz	-11.7309
▁mini	-11.7338
▁gefallen	-11.7435
▁Geste	-11.7581
▁Stadtszene	-11.7601
▁strik	-11.7665
▁türkis	-11.7674
graue	-11.7785
▁equ	-11.7793
holt	-11.7865
▁Häuser	-11.7869
▁Palme	-11.787
▁organ	-11.787
skier	-11.7871
▁Sommerkleid	-11.7872
plane	-11.7873
▁Farb	-11.7876
tunnel	-11.7879
break	-11.7879
Trikot	-11.7879
Wagen	-11.788
shape	-11.788
Park	-11.788
camera	-11.788
durch	-11.7881
rutscht	-11.7882
▁weld	-11.7886
The	-11.7889
statt	-11.7894
▁bring	-11.7913
▁fog	-11.7919
unterricht	-11.7921
arents	-11.7925
▁Gleis	-11.7927
▁bärtige	-11.7929
▁Schnu	-11.793
time	-11.7939
körper	-11.7939
▁flow	-11.795
gestreckt	-11.7954
▁slip	-11.7958
▁Flag	-11.7962
onfetti	-11.7964
▁Euro	-11.7964
runette	-11.7964
ustomers	-11.7964
embers	-11.7964
▁Halb	-11.7965
asino	-11.7965
stadt	-11.7965
▁Plüsch	-11.7965
▁Möbel	-11.7965
▁Fliesen	-11.7966
tänzer	-11.7966
cept	-11.7966
▁Mickey	-11.7966
▁Dinosaurier	-11.7966
▁Toiletten	-11.7966
▁double	-11.7966
▁extreme	-11.7966
Gesichtsausdruck	-11.7966
Kämpfer	-11.7966
Vogelperspektive	-11.7966
blatt	-11.7966
bläser	-11.7966
bühne	-11.7966
grube	-11.7966
ilitärangehörige	-11.7966
mittelalterliche	-11.7966
schlange	-11.7966
schlitten	-11.7966
▁Alkohol	-11.7966
▁Baskenmütze	-11.7966
▁Baumstämmen	-11.7966
▁Begriff	-11.7966
▁Betonstufen	-11.7966
▁Blazer	-11.7966
▁Brautjungfern	-11.7966
▁Broschüre	-11.7966
▁Bücherregal	-11.7966
▁Demonstration	-11.7966
▁Dschungel	-11.7966
▁Einrichtung	-11.7966
▁Ereignis	-11.7966
▁Felsformation	-11.7966
▁Felsklippe	-11.7966
▁Friedenszeichen	-11.7966
▁Geldbeutel	-11.7966
▁Getreide	-11.7966
▁Gewicht	-11.7966
▁Gletscher	-11.7966
▁Habseligkeiten	-11.7966
▁Highschool	-11.7966
▁Huhn	-11.7966
▁Information	-11.7966
▁Kaninchen	-11.7966
▁Kunstgalerie	-11.7966
▁Können	-11.7966
▁Lautsprecher	-11.7966
▁Löwen	-11.7966
▁Mülltüte	-11.7966
▁Nachmittag	-11.7966
▁Ochsen	-11.7966
▁Pinsel	-11.7966
▁Pizzeria	-11.7966
▁Preis	-11.7966
▁SUV	-11.7966
▁Schwebebalken	-11.7966
▁Staffelei	-11.7966
▁Stammeskleidung	-11.7966
▁Tankstelle	-11.7966
▁Tauziehen	-11.7966
▁Tempel	-11.7966
▁Terrier	-11.7966
▁Töpferware	-11.7966
▁Ultimate	-11.7966
▁Vegas	-11.7966
▁Wandmalerei	-11.7966
▁Zitrone	-11.7966
▁Zuhörer	-11.7966
▁Züge	-11.7966
▁activities	-11.7966
▁aufgeblasen	-11.7966
▁aufgesetzte	-11.7966
▁beeindrucken	-11.7966
▁bleiben	-11.7966
▁bleibt	-11.7966
▁buffet	-11.7966
▁bulldozer	-11.7966
▁cathedral	-11.7966
▁citizen	-11.7966
▁competitive	-11.7966
▁embrace	-11.7966
▁exercising	-11.7966
▁expans	-11.7966
▁faulenzt	-11.7966
▁fedora	-11.7966
▁gepolsterte	-11.7966
▁gesichert	-11.7966
▁gießen	-11.7966
▁grüß	-11.7966
▁harbor	-11.7966
▁hochzuklettern	-11.7966
▁holiday	-11.7966
▁kümmern	-11.7966
▁lädt	-11.7966
▁marsh	-11.7966
▁mascot	-11.7966
▁mattress	-11.7966
▁meadow	-11.7966
▁nipp	-11.7966
▁patrioti	-11.7966
▁professionell	-11.7966
▁reception	-11.7966
▁schleift	-11.7966
▁scientist	-11.7966
▁seafood	-11.7966
▁skydiving	-11.7966
▁slacks	-11.7966
▁snorkel	-11.7966
▁somewhere	-11.7966
▁steuert	-11.7966
▁strahlend	-11.7966
▁supermarket	-11.7966
▁tablecloth	-11.7966
▁temple	-11.7966
▁terminal	-11.7966
▁transit	-11.7966
▁trophy	-11.7966
▁trottet	-11.7966
▁unbekannte	-11.7966
▁verschwommen	-11.7966
▁videotap	-11.7966
▁wilderness	-11.7966
▁zahlreiche	-11.7966
▁zielt	-11.7966
▁zombie	-11.7966
▁zugewandt	-11.7966
Aufkleber	-11.7966
plattform	-11.7966
▁Bagger	-11.7966
▁Barkeeper	-11.7966
▁Gesellschaft	-11.7966
▁Speisekarte	-11.7966
▁Violett	-11.7966
▁geflie	-11.7966
▁gehüllt	-11.7966
▁level	-11.7966
▁major	-11.7966
▁pancake	-11.7966
▁polish	-11.7966
▁report	-11.7966
▁tumbl	-11.7966
räumen	-11.7966
ufdruck	-11.7966
▁Eisschnelll	-11.7966
▁Element	-11.7966
▁Fleck	-11.7966
▁Pfote	-11.7966
▁Schwester	-11.7966
▁beendet	-11.7966
▁buckelnde	-11.7966
▁conveni	-11.7966
▁hackt	-11.7966
▁kaputte	-11.7966
▁lackiert	-11.7966
▁lush	-11.7966
▁maybe	-11.7966
Guitar	-11.7966
▁Graben	-11.7966
▁Schmink	-11.7966
▁bongo	-11.7966
▁plow	-11.7966
▁richtig	-11.7966
▁steinerne	-11.7966
ashore	-11.7966
▁Filz	-11.7966
▁backseat	-11.7966
▁leitet	-11.7966
▁regelt	-11.7966
cient	-11.7966
▁broad	-11.7966
spiegel	-11.7966
▁bodysuit	-11.7966
▁expos	-11.7966
fällig	-11.7966
▁Bongo	-11.7966
▁Gesichtsmaske	-11.7966
▁Island	-11.7966
▁Zebrastreifen	-11.7966
nblick	-11.7966
▁Leucht	-11.7966
▁Säge	-11.7966
gegend	-11.7966
▁religiöse	-11.7966
▁Versuch	-11.7966
▁abgesperrt	-11.7966
▁downhill	-11.7966
▁Pult	-11.7966
▁Dark	-11.7966
▁Innenhof	-11.7966
▁puppet	-11.7966
▁Modellflugzeug	-11.7966
▁Neon	-11.7966
▁trotting	-11.7966
▁abgedunkelte	-11.7966
▁miniature	-11.7966
▁weinende	-11.7966
▁zip	-11.7966
ordnet	-11.7966
▁visor	-11.7966
▁Gokart	-11.7966
▁Backsteinstraße	-11.7966
▁Pflasterstraße	-11.7966
▁interessante	-11.7966
▁resort	-11.7966
▁historic	-11.7966
▁mounted	-11.7966
faltet	-11.7966
▁Großstadt	-11.7966
▁Ruderboot	-11.7966
▁sidelines	-11.7966
▁Töpfe	-11.7966
▁Kanal	-11.7966
▁sister	-11.7966
▁Felsblock	-11.7966
▁Innenraum	-11.7966
▁mule	-11.7966
eval	-11.7966
▁mexikanische	-11.7966
▁Renaissance	-11.7966
▁paw	-11.7967
▁dessert	-11.7967
trümpfe	-11.7967
▁Schuss	-11.7967
▁gefärbte	-11.7967
▁genau	-11.7967
▁zuhause	-11.7967
▁geschrieben	-11.7967
▁Seitenlinie	-11.7967
▁Fassade	-11.7967
▁search	-11.7967
Anzeige	-11.7967
▁oil	-11.7967
▁crops	-11.7967
▁Kuss	-11.7967
▁Tutu	-11.7967
▁Ringkampf	-11.7967
▁mehr	-11.7967
▁Torbogen	-11.7967
▁lanterns	-11.7967
▁Sims	-11.7967
▁oar	-11.7967
▁Kinn	-11.7968
▁Schauspieler	-11.7968
▁Geländefahrzeug	-11.7968
▁casino	-11.7968
▁winken	-11.7968
▁Betonplatte	-11.7968
▁Krone	-11.7968
▁Konfetti	-11.7968
▁demonstration	-11.7968
▁Wintertag	-11.7968
▁Radio	-11.7968
▁social	-11.7969
▁message	-11.7969
▁Vorstellung	-11.7969
▁weißhaarige	-11.7969
▁Fitness	-11.7969
ffnung	-11.7969
▁Glastür	-11.797
▁Runde	-11.797
▁Aufschlag	-11.797
▁balg	-11.797
▁clutch	-11.797
▁spend	-11.797
▁starring	-11.797
▁Berglandschaft	-11.7971
atik	-11.7971
▁Stelle	-11.7971
▁sunhat	-11.7971
▁woodland	-11.7971
▁skyline	-11.7971
▁rustic	-11.7971
▁Rockband	-11.7972
▁hinweg	-11.7972
▁shack	-11.7972
▁Leben	-11.7972
legged	-11.7973
▁getragen	-11.7973
▁Basketballfeld	-11.7973
▁binden	-11.7974
▁bump	-11.7974
▁Jew	-11.7974
▁Footballfeld	-11.7975
▁hochgehoben	-11.7975
▁send	-11.7976
schenkt	-11.7981
▁hour	-11.7983
▁Wort	-11.7984
Down	-11.7984
chief	-11.7984
▁türkisfarbene	-11.7985
lipper	-11.7987
▁Kartenspiel	-11.7987
brot	-11.7988
▁blind	-11.7991
geräum	-11.7995
▁award	-11.8004
ution	-11.8005
▁Dart	-11.8006
▁schreiende	-11.8006
gerollt	-11.8008
▁dunkelgrüne	-11.8014
▁squ	-11.8017
spekt	-11.8027
▁panel	-11.8029
▁puste	-11.8036
▁farb	-11.8042
You	-11.8057
Love	-11.8058
▁spik	-11.8085
BH	-11.8129
klasse	-11.8135
equi	-11.8142
ätzen	-11.8174
▁damage	-11.8197
kommende	-11.8238
getränk	-11.8359
ngry	-11.8469
gefähr	-11.8499
eitlich	-11.8567
▁Radrenn	-11.8635
capp	-11.8655
▁stretch	-11.8674
Oh	-11.8706
aube	-11.8761
storm	-11.8769
▁geschlagen	-11.8855
▁build	-11.8996
trio	-11.9017
▁angle	-11.9268
▁Freizeit	-11.9399
wheeler	-11.9435
▁pigeon	-11.9456
▁etwa	-11.9461
arasailing	-11.9499
trainer	-11.9502
hül	-11.9511
▁klein	-11.9512
▁Wände	-11.9537
▁Kunde	-11.9538
hockey	-11.9541
flute	-11.9544
schaufel	-11.9545
student	-11.9545
position	-11.9545
steigt	-11.9545
finish	-11.9545
Konzert	-11.9546
held	-11.9546
filled	-11.9546
outfit	-11.9546
schneidet	-11.9546
Auto	-11.9546
▁pray	-11.9548
high	-11.9554
▁defend	-11.9563
▁faci	-11.9563
wettkampf	-11.9578
▁neb	-11.9598
zeichnung	-11.9612
▁attach	-11.9613
wache	-11.9615
▁ceremon	-11.9618
flugzeug	-11.9623
nsammlung	-11.9623
ohren	-11.9627
▁Pho	-11.9627
szene	-11.9627
oddler	-11.9628
uzzle	-11.9629
änteln	-11.963
adminton	-11.963
ilitary	-11.9631
eautiful	-11.9631
eworfen	-11.9631
kappe	-11.9631
lantern	-11.9631
▁Schreib	-11.9632
▁Spazier	-11.9632
udiert	-11.9632
sportler	-11.9632
▁Wild	-11.9632
aufnahme	-11.9632
▁inflat	-11.9633
usdruck	-11.9633
▁Gentlem	-11.9633
▁Mega	-11.9633
▁magnif	-11.9633
▁occurr	-11.9633
Country	-11.9633
ariachi	-11.9633
gility	-11.9633
komplex	-11.9633
▁Bleistift	-11.9633
▁Cowgirl	-11.9633
▁Greyhound	-11.9633
▁Oxford	-11.9633
▁alcohol	-11.9633
▁enclos	-11.9633
▁scratch	-11.9633
▁supervis	-11.9633
Kulisse	-11.9633
Olympia	-11.9633
amurai	-11.9633
brunnen	-11.9633
bündel	-11.9633
entgegengesetzte	-11.9633
gedruckt	-11.9633
geführt	-11.9633
gerahmte	-11.9633
ietnames	-11.9633
indernisparcours	-11.9633
kapelle	-11.9633
leidenschaftlich	-11.9633
motiv	-11.9633
oberfläche	-11.9633
pflasterstraße	-11.9633
plakat	-11.9633
produkte	-11.9633
schaffen	-11.9633
vailable	-11.9633
werfer	-11.9633
▁Aquarium	-11.9633
▁Aufmerksamkeit	-11.9633
▁Blumenstrauß	-11.9633
▁Bulldozer	-11.9633
▁Bänder	-11.9633
▁Bürste	-11.9633
▁Chirurg	-11.9633
▁Cricket	-11.9633
▁Digitalkamera	-11.9633
▁Einkaufspassage	-11.9633
▁Fernrohr	-11.9633
▁Fingernägel	-11.9633
▁Fitnessstudio	-11.9633
▁Frühstück	-11.9633
▁Hochzeitstorte	-11.9633
▁Hollister	-11.9633
▁Hubschrauber	-11.9633
▁Hydranten	-11.9633
▁Hörsaal	-11.9633
▁Hüpfburg	-11.9633
▁Joggen	-11.9633
▁Kampfkunst	-11.9633
▁Karneval	-11.9633
▁Kathedrale	-11.9633
▁Kimono	-11.9633
▁Kopftücher	-11.9633
▁Küchentresen	-11.9633
▁Labrador	-11.9633
▁Liegestühlen	-11.9633
▁Limonade	-11.9633
▁Limousine	-11.9633
▁Lippenstift	-11.9633
▁Maulkörben	-11.9633
▁Meeresfrüchte	-11.9633
▁Minigolf	-11.9633
▁Nachtclub	-11.9633
▁Ocean	-11.9633
▁Partner	-11.9633
▁Professor	-11.9633
▁Promenade	-11.9633
▁Pyramide	-11.9633
▁Rasenmäher	-11.9633
▁Reporter	-11.9633
▁Rückwärtssalto	-11.9633
▁Sackhüpfen	-11.9633
▁Schlepp	-11.9633
▁Schädel	-11.9633
▁Schärpe	-11.9633
▁Seilspringen	-11.9633
▁Senioren	-11.9633
▁Spielmannszug	-11.9633
▁Stabhochsprung	-11.9633
▁Steuer	-11.9633
▁Strandpromenade	-11.9633
▁Superman	-11.9633
▁Textnachricht	-11.9633
▁Toyota	-11.9633
▁Vorlesung	-11.9633
▁Wasserpistole	-11.9633
▁Weihnachten	-11.9633
▁Wunderkerze	-11.9633
▁Zauber	-11.9633
▁Zoo	-11.9633
▁Zuckerwatte	-11.9633
▁Zutaten	-11.9633
▁adventur	-11.9633
▁akrobatische	-11.9633
▁ausgestopfte	-11.9633
▁barricade	-11.9633
▁begutachten	-11.9633
▁beschädigte	-11.9633
▁besetzte	-11.9633
▁breath	-11.9633
▁brindle	-11.9633
▁brochure	-11.9633
▁bronco	-11.9633
▁cardigan	-11.9633
▁civil	-11.9633
▁clarinet	-11.9633
▁coconut	-11.9633
▁competitor	-11.9633
▁cremefarbene	-11.9633
▁curious	-11.9633
▁dreckige	-11.9633
▁einkaufen	-11.9633
▁einzufangen	-11.9633
▁elegant	-11.9633
▁erwischt	-11.9633
▁ethnische	-11.9633
▁frown	-11.9633
▁füttern	-11.9633
▁gemütlich	-11.9633
▁geometri	-11.9633
▁glacier	-11.9633
▁hamburger	-11.9633
▁irgendetwas	-11.9633
▁kaukasische	-11.9633
▁kehren	-11.9633
▁kiosk	-11.9633
▁kommunizier	-11.9633
▁komplizierte	-11.9633
▁lebhaft	-11.9633
▁lipstick	-11.9633
▁liquor	-11.9633
▁lustige	-11.9633
▁niedliche	-11.9633
▁nightclub	-11.9633
▁noodle	-11.9633
▁occup	-11.9633
▁olympische	-11.9633
▁operation	-11.9633
▁ornament	-11.9633
▁pflückt	-11.9633
▁pflüg	-11.9633
▁poncho	-11.9633
▁professor	-11.9633
▁progress	-11.9633
▁quad	-11.9633
▁question	-11.9633
▁ravine	-11.9633
▁razor	-11.9633
▁recreat	-11.9633
▁regenbogenfarb	-11.9633
▁relay	-11.9633
▁sausage	-11.9633
▁schattige	-11.9633
▁scissors	-11.9633
▁seesaw	-11.9633
▁senkrecht	-11.9633
▁servieren	-11.9633
▁sparkler	-11.9633
▁spatula	-11.9633
▁stöber	-11.9633
▁submerge	-11.9633
▁sunshine	-11.9633
▁symbol	-11.9633
▁trocknet	-11.9633
▁umgedrehte	-11.9633
▁verfolgen	-11.9633
▁windsurf	-11.9633
▁wineglasses	-11.9633
▁wolkige	-11.9633
▁zeichnen	-11.9633
Magazin	-11.9633
stronaut	-11.9633
▁Amboss	-11.9633
▁Berggipfel	-11.9633
▁Capri	-11.9633
▁Claus	-11.9633
▁Empfang	-11.9633
▁Gänse	-11.9633
▁Keks	-11.9633
▁Landkarte	-11.9633
▁Lieblings	-11.9633
▁Muschel	-11.9633
▁Nadelstreifen	-11.9633
▁Orient	-11.9633
▁Plane	-11.9633
▁SMS	-11.9633
▁Schloss	-11.9633
▁Spiderman	-11.9633
▁Tischtennis	-11.9633
▁Wasserfontäne	-11.9633
▁befrei	-11.9633
▁bohrt	-11.9633
▁breast	-11.9633
▁defens	-11.9633
▁durchsucht	-11.9633
▁normal	-11.9633
▁plush	-11.9633
▁socializing	-11.9633
▁talent	-11.9633
▁üppig	-11.9633
Krieg	-11.9633
sponsor	-11.9633
▁Berlin	-11.9633
▁Leoparden	-11.9633
▁Milch	-11.9633
▁Ohrhörer	-11.9633
▁Stände	-11.9633
▁bronze	-11.9633
▁cycle	-11.9633
▁suburb	-11.9633
▁wäre	-11.9633
▁Front	-11.9633
▁radio	-11.9633
▁Garden	-11.9633
▁Wii	-11.9633
▁eager	-11.9633
▁kostümierte	-11.9633
▁strickt	-11.9633
▁challeng	-11.9633
▁proud	-11.9633
anzeige	-11.9633
▁Krug	-11.9633
▁bricht	-11.9633
▁freut	-11.9633
▁husband	-11.9633
▁Haarschnitt	-11.9633
▁sweet	-11.9633
▁Wanderweg	-11.9633
▁angeleint	-11.9633
▁musizier	-11.9633
▁fireworks	-11.9633
▁flaming	-11.9633
▁milk	-11.9633
▁platziert	-11.9633
▁Dekorationen	-11.9633
▁Lakers	-11.9633
▁Salat	-11.9633
▁poliert	-11.9633
▁utili	-11.9633
▁vault	-11.9633
▁Ausflug	-11.9633
▁badge	-11.9633
▁intensiv	-11.9633
üstung	-11.9633
▁Gray	-11.9633
▁Haut	-11.9633
▁information	-11.9633
rgert	-11.9633
▁Fahrgäste	-11.9633
▁chunk	-11.9633
▁sash	-11.9633
wärme	-11.9633
▁Polizeibeamte	-11.9633
▁accept	-11.9633
▁Durchgang	-11.9633
▁Bordsteinkante	-11.9633
abhängen	-11.9633
▁Deli	-11.9633
▁piercing	-11.9633
▁Ausschau	-11.9633
▁Burg	-11.9633
▁Haken	-11.9633
▁Hasen	-11.9633
▁navigier	-11.9633
▁Krankenhausbett	-11.9633
▁Minne	-11.9633
▁Spazierstock	-11.9633
▁Steg	-11.9633
pullover	-11.9633
▁Camper	-11.9633
▁Kühe	-11.9633
▁Schotterstraße	-11.9633
▁Schwimmflügeln	-11.9633
▁Open	-11.9633
▁Geschichte	-11.9633
▁Wettlauf	-11.9633
▁applaudi	-11.9633
▁patrol	-11.9633
▁falsch	-11.9633
▁Kleinbus	-11.9633
▁Möbelstück	-11.9633
▁verrückt	-11.9633
▁knitting	-11.9633
▁Essenswagen	-11.9633
▁Schotterweg	-11.9633
▁master	-11.9633
ketch	-11.9633
▁Dreh	-11.9633
▁cowgirl	-11.9633
▁Motorboot	-11.9633
▁Fischerboot	-11.9633
▁Fußgängerbrücke	-11.9633
sessel	-11.9633
▁Außenseite	-11.9634
▁goatee	-11.9634
▁müde	-11.9634
schiff	-11.9634
▁Ebene	-11.9634
▁Kamin	-11.9634
▁limb	-11.9634
▁Dunkeln	-11.9634
▁bequem	-11.9634
▁kurzhaarige	-11.9634
▁belly	-11.9634
▁Schwimmhilfe	-11.9634
▁puzzle	-11.9634
▁kontrollier	-11.9634
ühlt	-11.9634
▁Bikinioberteil	-11.9634
▁archway	-11.9634
▁Spül	-11.9634
▁schält	-11.9634
aufführung	-11.9634
▁Innere	-11.9634
▁zone	-11.9634
▁teilnimmt	-11.9634
▁Golfplatz	-11.9635
▁Zune	-11.9635
▁Schwanz	-11.9635
▁assistant	-11.9635
▁Badminton	-11.9635
schale	-11.9635
▁Metallzaun	-11.9635
helfe	-11.9635
▁awning	-11.9635
▁rise	-11.9635
▁drift	-11.9635
▁flood	-11.9636
▁BMW	-11.9636
▁massive	-11.9636
▁Taucheranzug	-11.9636
stride	-11.9636
▁protestieren	-11.9637
▁instructor	-11.9638
▁react	-11.9638
▁karge	-11.9638
▁Angestellte	-11.9639
▁haul	-11.9639
▁pump	-11.9639
▁Hacke	-11.964
▁Ice	-11.9641
itness	-11.9641
▁vermu	-11.9641
stunde	-11.9644
▁ripp	-11.9646
achete	-11.9646
gäste	-11.9647
▁Wartungsarbeite	-11.9647
töpfe	-11.9652
Free	-11.9655
▁Comic	-11.9656
▁Famil	-11.9656
lötz	-11.9658
▁brä	-11.9658
▁perche	-11.967
▁bunn	-11.9685
▁grip	-11.9692
▁wipe	-11.9693
▁Messe	-11.97
▁Schere	-11.9701
▁hochkletter	-11.9706
rubs	-11.9708
▁chemi	-11.9716
ennis	-11.9732
▁dunkelbraune	-11.9745
▁punk	-11.9756
organis	-11.9774
Jump	-11.9795
ould	-11.9797
risk	-11.9808
▁wicke	-11.9812
ascar	-11.9814
Freizeitkleidung	-11.9872
haps	-11.9972
gestell	-11.9975
icherheitswesten	-11.9977
gericht	-12.002
▁Kla	-12.0063
zenerie	-12.0116
harp	-12.013
▁seltsam	-12.0133
chaufensterpuppe	-12.0154
ivid	-12.03
foli	-12.0325
lpen	-12.039
lbernen	-12.0603
completed	-12.0633
streu	-12.0692
▁Golfspiel	-12.0744
▁gesäumt	-12.0757
chaufensterfront	-12.0768
almati	-12.0896
lance	-12.0906
▁Scheinwerfer	-12.0923
▁Loc	-12.0946
puppe	-12.1031
▁pflanz	-12.1034
▁barbecu	-12.1079
▁slop	-12.1206
frikanische	-12.122
▁Aktivität	-12.1306
hawk	-12.1337
▁tätowier	-12.1348
▁hübsch	-12.1374
klettern	-12.1457
▁Training	-12.1457
▁pedestrian	-12.1457
▁backward	-12.1458
▁älter	-12.1474
skating	-12.1516
fertige	-12.1533
▁Büsche	-12.1536
▁bewölkte	-12.1536
▁Kerze	-12.1537
▁Rucksäcke	-12.1537
▁Speise	-12.1537
Mitarbeiter	-12.1543
Tattoo	-12.1544
monitor	-12.1544
Werbung	-12.1545
Ausrüstung	-12.1545
Tunnel	-12.1545
festival	-12.1545
Computer	-12.1546
Restaurant	-12.1546
Rennen	-12.1546
restaurant	-12.1546
Fahrrad	-12.1547
herum	-12.1548
karierte	-12.1548
bull	-12.1548
leckt	-12.1563
langen	-12.1564
zieh	-12.1572
▁brid	-12.1578
geschnittene	-12.158
▁Backstein	-12.1581
flieger	-12.1582
räumt	-12.1591
▁Patient	-12.1593
▁Pitch	-12.1603
▁bewunder	-12.1611
▁arrange	-12.1611
▁multicolor	-12.1613
▁curl	-12.1619
raktor	-12.1623
orhüter	-12.1623
opcorn	-12.163
trikot	-12.163
lebt	-12.1631
loud	-12.1631
musik	-12.1631
▁Schotter	-12.1631
▁synchron	-12.1632
▁Pflaster	-12.1632
estrian	-12.1632
motorrad	-12.1632
dunkelte	-12.1632
▁Durch	-12.1632
▁Bürger	-12.1632
▁Reklame	-12.1632
echani	-12.1633
▁Irokesen	-12.1633
▁Kongress	-12.1633
▁depict	-12.1633
▁passionate	-12.1633
▁tread	-12.1633
quaint	-12.1633
▁Kitesurf	-12.1633
▁Krabbe	-12.1633
▁blossom	-12.1633
▁chil	-12.1633
▁nibbl	-12.1633
▁refresh	-12.1633
▁represent	-12.1633
▁scantily	-12.1633
Maskottchen	-12.1633
Metallgegenstand	-12.1633
Offizier	-12.1633
Tintenfisch	-12.1633
auslage	-12.1633
eisenbahn	-12.1633
kissen	-12.1633
program	-12.1633
rädrige	-12.1633
röße	-12.1633
schaftskollegen	-12.1633
schleudert	-12.1633
sgesellschaft	-12.1633
stöckige	-12.1633
superman	-12.1633
terrasse	-12.1633
umgebung	-12.1633
unruhige	-12.1633
ätzchen	-12.1633
ürfel	-12.1633
▁Absatzschuhe	-12.1633
▁Abschluss	-12.1633
▁Absperrband	-12.1633
▁Abstammung	-12.1633
▁Bauernhof	-12.1633
▁Betrieb	-12.1633
▁Blätterhaufen	-12.1633
▁Coffee	-12.1633
▁Company	-12.1633
▁Cyclist	-12.1633
▁Dancers	-12.1633
▁Denkmal	-12.1633
▁Dessert	-12.1633
▁Dirigent	-12.1633
▁Doktor	-12.1633
▁Dutzend	-12.1633
▁Elektri	-12.1633
▁Endzone	-12.1633
▁Fahrradreifen	-12.1633
▁Friedhof	-12.1633
▁Fässer	-12.1633
▁Führung	-12.1633
▁Garagentor	-12.1633
▁Gemeinde	-12.1633
▁Halfpipe	-12.1633
▁Handtücher	-12.1633
▁Huckepack	-12.1633
▁Husky	-12.1633
▁Höhle	-12.1633
▁Jetski	-12.1633
▁Karikatur	-12.1633
▁Kastenwagen	-12.1633
▁Klarinette	-12.1633
▁Kleinigkeit	-12.1633
▁Kletterwand	-12.1633
▁Kutsche	-12.1633
▁Lobby	-12.1633
▁Material	-12.1633
▁Matratze	-12.1633
▁Mehl	-12.1633
▁Männliche	-12.1633
▁Operationssaal	-12.1633
▁Orangensaft	-12.1633
▁Photographer	-12.1633
▁Poncho	-12.1633
▁Programm	-12.1633
▁Riemen	-12.1633
▁Roboter	-12.1633
▁Schildkröte	-12.1633
▁Schokolade	-12.1633
▁Schusswaffe	-12.1633
▁Schwierigkeiten	-12.1633
▁Soldier	-12.1633
▁Sprache	-12.1633
▁Sprühfarbe	-12.1633
▁Staffellauf	-12.1633
▁Städtische	-12.1633
▁Surfen	-12.1633
▁Symbol	-12.1633
▁Söhne	-12.1633
▁Tauchausrüstung	-12.1633
▁Toreinfahrt	-12.1633
▁Truthahn	-12.1633
▁Tunik	-12.1633
▁Türeingang	-12.1633
▁UNICEF	-12.1633
▁Vorbereitung	-12.1633
▁Werkzeuggürtel	-12.1633
▁Wheelie	-12.1633
▁Wissenschaftler	-12.1633
▁Wälder	-12.1633
▁Zombie	-12.1633
▁automobile	-12.1633
▁backstroke	-12.1633
▁beaufsichtigt	-12.1633
▁befestigen	-12.1633
▁befragt	-12.1633
▁betrunken	-12.1633
▁bevölker	-12.1633
▁blindfolded	-12.1633
▁bookshelf	-12.1633
▁bracelet	-12.1633
▁cartwheel	-12.1633
▁champagne	-12.1633
▁cockpit	-12.1633
▁community	-12.1633
▁consult	-12.1633
▁contemplat	-12.1633
▁cruis	-12.1633
▁curren	-12.1633
▁curtain	-12.1633
▁dafür	-12.1633
▁demonstrier	-12.1633
▁detail	-12.1633
▁dolphin	-12.1633
▁dramatic	-12.1633
▁elbow	-12.1633
▁errichtet	-12.1633
▁erzielen	-12.1633
▁erzählt	-12.1633
▁excitement	-12.1633
▁exciting	-12.1633
▁eyeglasses	-12.1633
▁fingernail	-12.1633
▁fireplace	-12.1633
▁fluores	-12.1633
▁funktioniert	-12.1633
▁geschnitzte	-12.1633
▁gespreizt	-12.1633
▁gestaltete	-12.1633
▁gesteckt	-12.1633
▁getrocknet	-12.1633
▁gewonnen	-12.1633
▁identical	-12.1633
▁irgendwelche	-12.1633
▁jackhammer	-12.1633
▁jüdische	-12.1633
▁klassische	-12.1633
▁knappe	-12.1633
▁kniehohe	-12.1633
▁lokale	-12.1633
▁merchant	-12.1633
▁monopoly	-12.1633
▁obdachlose	-12.1633
▁pacifier	-12.1633
▁participant	-12.1633
▁passerby	-12.1633
▁peacock	-12.1633
▁possession	-12.1633
▁primitiv	-12.1633
▁quilt	-12.1633
▁rehears	-12.1633
▁remote	-12.1633
▁respond	-12.1633
▁rowboat	-12.1633
▁rubble	-12.1633
▁rustikal	-12.1633
▁rötliche	-12.1633
▁schräg	-12.1633
▁shelves	-12.1633
▁stolpert	-12.1633
▁stämmige	-12.1633
▁süße	-12.1633
▁tambourine	-12.1633
▁tiara	-12.1633
▁tightrope	-12.1633
▁umgekippt	-12.1633
▁unidentifi	-12.1633
▁unknown	-12.1633
▁vegetation	-12.1633
▁verkehrsreiche	-12.1633
▁verloren	-12.1633
▁volunteer	-12.1633
▁watercraft	-12.1633
▁zebra	-12.1633
▁zerbrochene	-12.1633
▁übergroße	-12.1633
▁überwiegend	-12.1633
gefunden	-12.1633
kragen	-12.1633
owerpoint	-12.1633
ziegel	-12.1633
▁Aufwärmen	-12.1633
▁Ballbesitz	-12.1633
▁Bedienung	-12.1633
▁Buffet	-12.1633
▁Business	-12.1633
▁Gabel	-12.1633
▁Haupt	-12.1633
▁Hochzeitsfeier	-12.1633
▁Schaumbad	-12.1633
▁Schottenr	-12.1633
▁Weingläsern	-12.1633
▁Zehen	-12.1633
▁apparatus	-12.1633
▁asphalt	-12.1633
▁clock	-12.1633
▁drunk	-12.1633
▁escape	-12.1633
▁graduati	-12.1633
▁heißt	-12.1633
▁javelin	-12.1633
▁moos	-12.1633
▁peddl	-12.1633
▁robot	-12.1633
▁shoeshine	-12.1633
▁sweatsuit	-12.1633
▁terrier	-12.1633
▁verteidigen	-12.1633
▁weave	-12.1633
Amerika	-12.1633
Kunstausstellung	-12.1633
album	-12.1633
gerissen	-12.1633
jungf	-12.1633
rincess	-12.1633
▁Esszimmer	-12.1633
▁Grouch	-12.1633
▁Gäste	-12.1633
▁Kayak	-12.1633
▁Kniestrümpfe	-12.1633
▁Unterricht	-12.1633
▁canopy	-12.1633
▁carousel	-12.1633
▁deutet	-12.1633
▁happen	-12.1633
▁hechtet	-12.1633
▁kriech	-12.1633
▁priest	-12.1633
▁salad	-12.1633
▁stoßen	-12.1633
Twister	-12.1633
▁Sturz	-12.1633
▁abgewandt	-12.1633
▁husky	-12.1633
▁stecken	-12.1633
▁verliert	-12.1633
uvre	-12.1633
▁bergige	-12.1633
▁leckere	-12.1633
▁sanft	-12.1633
▁sparse	-12.1633
balken	-12.1633
betrieben	-12.1633
hnachtsgeschenke	-12.1633
schonern	-12.1633
sänger	-12.1633
▁Lappen	-12.1633
▁Suppe	-12.1633
▁Tennisbälle	-12.1633
▁gemischte	-12.1633
▁pursu	-12.1633
▁salut	-12.1633
triebs	-12.1633
▁Riesen	-12.1633
▁Schanze	-12.1633
▁Stoß	-12.1633
▁campsite	-12.1633
▁metallic	-12.1633
▁slab	-12.1633
▁whistle	-12.1633
gerüst	-12.1633
▁Auszeichnung	-12.1633
▁Kanone	-12.1633
▁Kleidungsstücke	-12.1633
▁garment	-12.1633
▁Diadem	-12.1633
▁cattle	-12.1633
Motiv	-12.1633
penguin	-12.1633
▁bettelt	-12.1633
▁cinder	-12.1633
▁impress	-12.1633
▁operier	-12.1633
▁stricken	-12.1633
▁bakery	-12.1633
▁winzige	-12.1633
▁Harfe	-12.1633
▁Hängebrücke	-12.1633
▁Power	-12.1633
▁jogger	-12.1633
Goalie	-12.1633
bude	-12.1633
▁lenkt	-12.1633
▁retai	-12.1633
lowly	-12.1633
▁Centr	-12.1633
▁verteilen	-12.1633
▁Lead	-12.1633
▁Vieh	-12.1633
▁pride	-12.1633
▁Chips	-12.1633
▁Ruinen	-12.1633
▁squirt	-12.1633
▁Tief	-12.1633
▁Balletttänzer	-12.1633
▁Kleinstadt	-12.1633
▁Trocken	-12.1633
schüttet	-12.1633
▁Faust	-12.1633
▁arabische	-12.1633
taught	-12.1633
▁Stachel	-12.1633
dehnt	-12.1633
▁meditat	-12.1633
▁Blüte	-12.1633
Objektiv	-12.1633
▁übersäte	-12.1633
▁blass	-12.1633
▁snake	-12.1633
▁cartoon	-12.1633
wanderung	-12.1633
▁gepflegte	-12.1633
▁hedge	-12.1633
▁interess	-12.1633
Kitty	-12.1633
source	-12.1633
▁trommelt	-12.1633
▁Backsteinwand	-12.1633
▁contin	-12.1633
schwarm	-12.1633
▁Fliesenboden	-12.1633
kuppe	-12.1633
ngesicht	-12.1633
▁Hafengebiet	-12.1633
▁strum	-12.1633
▁bummel	-12.1633
▁trap	-12.1633
▁Indische	-12.1634
▁ruins	-12.1634
▁zupft	-12.1634
▁answer	-12.1634
▁peel	-12.1634
▁gedeckt	-12.1634
famili	-12.1634
leece	-12.1634
▁lausch	-12.1634
▁Lehm	-12.1634
bieten	-12.1634
▁strawberr	-12.1634
▁Itali	-12.1634
kurv	-12.1635
▁assort	-12.1635
▁rundes	-12.1635
▁solid	-12.1635
Schwamm	-12.1635
Pinguin	-12.1635
amara	-12.1635
▁menschliche	-12.1635
▁tausch	-12.1636
nüss	-12.1636
▁Werk	-12.1636
norak	-12.1636
▁amaz	-12.1637
▁Hecke	-12.1637
▁durchsichtige	-12.1638
▁Säcke	-12.1638
▁antike	-12.1639
▁eigene	-12.1639
ssenger	-12.1641
kugel	-12.1641
leute	-12.1642
gurt	-12.1644
schnee	-12.1647
▁medal	-12.1648
▁Taste	-12.1649
adles	-12.1654
Truck	-12.1655
▁malerische	-12.1657
pplies	-12.1663
▁Dritte	-12.1695
ateinamerikan	-12.1696
▁prächtig	-12.1708
▁Stütz	-12.171
Meter	-12.172
▁Blöcke	-12.1721
feuer	-12.1722
▁Hänge	-12.1727
▁fashionabl	-12.1776
gebilde	-12.1826
▁dye	-12.1834
rbeitsplatz	-12.1872
ottis	-12.19
▁Ausführ	-12.1908
ailing	-12.2071
issue	-12.2291
▁betreib	-12.2298
▁bedruckt	-12.2302
cheinwerferlicht	-12.2396
postal	-12.2465
befördert	-12.255
▁Dreiräder	-12.263
ortable	-12.2649
geschlagene	-12.2674
springer	-12.2684
stretched	-12.2792
gerichtete	-12.2862
▁Trop	-12.2895
ufgeregte	-12.2938
rennbahn	-12.2943
▁Trockne	-12.2952
coal	-12.296
Doo	-12.2999
guards	-12.3068
goldene	-12.3142
▁Schleif	-12.3297
trupp	-12.3468
bringt	-12.3522
▁brünett	-12.3574
▁gefäl	-12.3886
▁bewach	-12.3926
absperrung	-12.393
wöl	-12.3968
presst	-12.401
▁langärmelige	-12.4035
bietet	-12.4043
Video	-12.4043
Kugel	-12.4044
Texas	-12.4044
Wettbewerb	-12.4045
baby	-12.4045
cool	-12.4045
gesäumte	-12.4045
Roll	-12.4046
runner	-12.4046
tattoo	-12.4046
Künstler	-12.4046
hellbraune	-12.4046
screen	-12.4046
Schuhen	-12.4046
Veranstaltung	-12.4046
Volleyball	-12.4046
Laden	-12.4046
Sport	-12.4046
schlägt	-12.4046
Fußballspieler	-12.4046
Gebäude	-12.4046
Shorts	-12.4047
Jacke	-12.4047
Feld	-12.4047
Gruppe	-12.4047
zuschauen	-12.4047
white	-12.4047
pink	-12.4047
ficial	-12.4054
▁schreien	-12.4059
gebracht	-12.4069
▁Eiscrem	-12.408
▁Teenage	-12.4094
wasch	-12.4095
stände	-12.4095
riends	-12.4095
flügel	-12.4099
ircus	-12.4109
▁plansch	-12.4111
▁Saiten	-12.4116
▁quick	-12.4125
ngerichtet	-12.4126
▁blank	-12.413
ußballspiel	-12.413
haften	-12.4131
ärtiger	-12.4131
rünette	-12.4131
blumen	-12.4132
hauer	-12.4132
grund	-12.4132
mergency	-12.4132
xcited	-12.4132
hafen	-12.4132
ulture	-12.4132
▁Zebra	-12.4133
ografie	-12.4133
utfielder	-12.4133
berqueren	-12.4133
Freiheitsstatue	-12.4133
▁Pickup	-12.4133
▁Technik	-12.4133
World	-12.4133
pproximate	-12.4133
▁Augenbraue	-12.4133
▁Engine	-12.4133
▁Metzger	-12.4133
▁Schneider	-12.4133
▁improv	-12.4133
▁pounc	-12.4133
▁schwanger	-12.4133
Barbecue	-12.4133
Briefkasten	-12.4133
Farbstiften	-12.4133
Frauenvolleyball	-12.4133
Grundschulkinder	-12.4133
Markierung	-12.4133
Planschbecken	-12.4133
abradoodle	-12.4133
altestelle	-12.4133
beleuchtung	-12.4133
chnappschuss	-12.4133
crabble	-12.4133
credibl	-12.4133
dolescent	-12.4133
eheimnis	-12.4133
ettungsschwimmer	-12.4133
geknöpft	-12.4133
geschirr	-12.4133
geschnallt	-12.4133
isenbahnschienen	-12.4133
journal	-12.4133
käfig	-12.4133
kühlen	-12.4133
lalom	-12.4133
letterausrüstung	-12.4133
manövriert	-12.4133
mpanadas	-12.4133
möbeln	-12.4133
ortillas	-12.4133
prühdose	-12.4133
rancisco	-12.4133
schlüssel	-12.4133
sprecher	-12.4133
stadion	-12.4133
uadraten	-12.4133
undschaft	-12.4133
vermählte	-12.4133
wänden	-12.4133
zufinden	-12.4133
▁Abenddämmerung	-12.4133
▁Akrobati	-12.4133
▁Alaska	-12.4133
▁Angelschnur	-12.4133
▁Apparat	-12.4133
▁Ausblick	-12.4133
▁Backware	-12.4133
▁Baltimore	-12.4133
▁Basketbälle	-12.4133
▁Bassgitarre	-12.4133
▁Brazil	-12.4133
▁Bärten	-12.4133
▁California	-12.4133
▁Castro	-12.4133
▁Challenge	-12.4133
▁Chinatown	-12.4133
▁Cockpit	-12.4133
▁Crocs	-12.4133
▁Dokument	-12.4133
▁Drähten	-12.4133
▁Ehemann	-12.4133
▁Elektro	-12.4133
▁Elektrogitarre	-12.4133
▁Essstäbchen	-12.4133
▁Felsenklippe	-12.4133
▁Frühling	-12.4133
▁Fundament	-12.4133
▁Fähr	-12.4133
▁Gabelstapler	-12.4133
▁Gasmaske	-12.4133
▁Gebirge	-12.4133
▁Gebäck	-12.4133
▁Gedanken	-12.4133
▁Gehörschutz	-12.4133
▁Gerätschaften	-12.4133
▁Gestrüpp	-12.4133
▁Glatzenansatz	-12.4133
▁Happen	-12.4133
▁Harmonika	-12.4133
▁Hausaufgaben	-12.4133
▁Hockeyschläger	-12.4133
▁Holzkohle	-12.4133
▁Holzpfahl	-12.4133
▁Hopper	-12.4133
▁Hölle	-12.4133
▁Individual	-12.4133
▁Iowa	-12.4133
▁James	-12.4133
▁Jogginghose	-12.4133
▁Karaoke	-12.4133
▁Kawasaki	-12.4133
▁Kickboxen	-12.4133
▁Knochen	-12.4133
▁Kokosnüsse	-12.4133
▁Krokodil	-12.4133
▁Kunstmuseum	-12.4133
▁Kälte	-12.4133
▁Langarmhemd	-12.4133
▁Leichtathlet	-12.4133
▁Leotard	-12.4133
▁Liegestütze	-12.4133
▁Lokomotive	-12.4133
▁Löcher	-12.4133
▁MMA	-12.4133
▁Maiskolben	-12.4133
▁Meeresufer	-12.4133
▁Miniatur	-12.4133
▁Mittelalter	-12.4133
▁Mundharmonika	-12.4133
▁Mütter	-12.4133
▁Needle	-12.4133
▁Neun	-12.4133
▁Notebook	-12.4133
▁Ordnung	-12.4133
▁Paintball	-12.4133
▁Papiertüte	-12.4133
▁Pendler	-12.4133
▁Picture	-12.4133
▁Poolbillard	-12.4133
▁Prüfung	-12.4133
▁Reinigungs	-12.4133
▁Ribbon	-12.4133
▁SWAT	-12.4133
▁Scheitel	-12.4133
▁Schindel	-12.4133
▁Schläfchen	-12.4133
▁Schläuche	-12.4133
▁Schneidebrett	-12.4133
▁Schokoladeneis	-12.4133
▁Scooby	-12.4133
▁Seahawks	-12.4133
▁Skipiste	-12.4133
▁Skyline	-12.4133
▁Sombrero	-12.4133
▁Sonnenschein	-12.4133
▁Spagat	-12.4133
▁Sportereignis	-12.4133
▁Strafzettel	-12.4133
▁Strickjacke	-12.4133
▁Stäbchen	-12.4133
▁Sumoringe	-12.4133
▁Swimmer	-12.4133
▁Tambo	-12.4133
▁Teammitglied	-12.4133
▁Telefonmasten	-12.4133
▁Truppe	-12.4133
▁Turnübung	-12.4133
▁Töpferscheibe	-12.4133
▁UFC	-12.4133
▁Unterstützung	-12.4133
▁Verstärker	-12.4133
▁Windsurfe	-12.4133
▁YMCA	-12.4133
▁Yankee	-12.4133
▁Zentrum	-12.4133
▁Zwilling	-12.4133
▁abzuwehren	-12.4133
▁aircraft	-12.4133
▁angelehnt	-12.4133
▁apparel	-12.4133
▁architectur	-12.4133
▁aufgemalt	-12.4133
▁balconies	-12.4133
▁beleibte	-12.4133
▁besprechen	-12.4133
▁bloom	-12.4133
▁breakdance	-12.4133
▁breitkrempigen	-12.4133
▁brief	-12.4133
▁bügelt	-12.4133
▁cafeteria	-12.4133
▁chubby	-12.4133
▁cityscape	-12.4133
▁cluster	-12.4133
▁consider	-12.4133
▁convertible	-12.4133
▁crutches	-12.4133
▁diskutiert	-12.4133
▁dominoes	-12.4133
▁empor	-12.4133
▁erhebt	-12.4133
▁erklärt	-12.4133
▁extravagant	-12.4133
▁flexible	-12.4133
▁fliederfarbene	-12.4133
▁footbridge	-12.4133
▁foundation	-12.4133
▁französische	-12.4133
▁freuen	-12.4133
▁freundlich	-12.4133
▁frolic	-12.4133
▁frustrated	-12.4133
▁frustriert	-12.4133
▁galoppier	-12.4133
▁gefilmt	-12.4133
▁geneigte	-12.4133
▁gescheckte	-12.4133
▁getupfte	-12.4133
▁glitzernde	-12.4133
▁gähnt	-12.4133
▁heiraten	-12.4133
▁hopscotch	-12.4133
▁hämmer	-12.4133
▁identisch	-12.4133
▁jugendliche	-12.4133
▁kostet	-12.4133
▁landmark	-12.4133
▁liebkost	-12.4133
▁locomotive	-12.4133
▁lötet	-12.4133
▁mascara	-12.4133
▁megaphone	-12.4133
▁merkwürdig	-12.4133
▁mermaid	-12.4133
▁miniskirt	-12.4133
▁motorboat	-12.4133
▁musikalische	-12.4133
▁muslimische	-12.4133
▁möglich	-12.4133
▁neigt	-12.4133
▁octopus	-12.4133
▁paintbrush	-12.4133
▁piggyback	-12.4133
▁pineapple	-12.4133
▁poverty	-12.4133
▁prevent	-12.4133
▁prizes	-12.4133
▁prunkvolle	-12.4133
▁renovier	-12.4133
▁satchel	-12.4133
▁schlummert	-12.4133
▁screwdriver	-12.4133
▁senffarbene	-12.4133
▁sheepdog	-12.4133
▁skeleton	-12.4133
▁sombrero	-12.4133
▁stalks	-12.4133
▁steaks	-12.4133
▁studies	-12.4133
▁substance	-12.4133
▁sumpfige	-12.4133
▁swimwear	-12.4133
▁technique	-12.4133
▁technology	-12.4133
▁terrace	-12.4133
▁thread	-12.4133
▁triangle	-12.4133
▁trombone	-12.4133
▁ukulele	-12.4133
▁ungepflegte	-12.4133
▁unterbricht	-12.4133
▁unwrap	-12.4133
▁verhindern	-12.4133
▁verzerrte	-12.4133
▁vorliest	-12.4133
▁zerrissene	-12.4133
▁zugedeckt	-12.4133
Kiosk	-12.4133
Monitor	-12.4133
auptsä	-12.4133
oskop	-12.4133
stimmung	-12.4133
temporary	-12.4133
▁Benzin	-12.4133
▁Bürgerkriegs	-12.4133
▁Einheimische	-12.4133
▁Elektronik	-12.4133
▁Factory	-12.4133
▁Heineken	-12.4133
▁Henna	-12.4133
▁Kunsthandwerk	-12.4133
▁Latzhose	-12.4133
▁Pfahl	-12.4133
▁Pinien	-12.4133
▁Presslufth	-12.4133
▁Sprinkler	-12.4133
▁Steinstufen	-12.4133
▁Toast	-12.4133
▁Universität	-12.4133
▁Wörter	-12.4133
▁flüster	-12.4133
▁gleiten	-12.4133
▁herausragen	-12.4133
▁hispanic	-12.4133
▁international	-12.4133
▁kettle	-12.4133
▁kuschel	-12.4133
▁magic	-12.4133
▁pebbl	-12.4133
▁physi	-12.4133
▁prun	-12.4133
▁sauce	-12.4133
▁seaweed	-12.4133
▁workbench	-12.4133
Cyclone	-12.4133
cific	-12.4133
wanderweg	-12.4133
zuschlagen	-12.4133
▁Anlass	-12.4133
▁Atlanta	-12.4133
▁Bandkolleg	-12.4133
▁Berufs	-12.4133
▁Calvin	-12.4133
▁Hochzeitsfoto	-12.4133
▁Insekt	-12.4133
▁Kapuzenjacke	-12.4133
▁Korean	-12.4133
▁Packung	-12.4133
▁Podest	-12.4133
▁Pokemon	-12.4133
▁Puma	-12.4133
▁Spielzeugpferd	-12.4133
▁bookbag	-12.4133
▁bookstore	-12.4133
▁crush	-12.4133
▁element	-12.4133
▁geduckt	-12.4133
▁gelandet	-12.4133
▁guest	-12.4133
▁knietief	-12.4133
▁mechanische	-12.4133
▁metropoli	-12.4133
▁napkin	-12.4133
▁sponge	-12.4133
▁unison	-12.4133
▁llama	-12.4133
▁prahl	-12.4133
veteran	-12.4133
▁Kombi	-12.4133
▁Martin	-12.4133
▁sunrise	-12.4133
▁Bierflaschen	-12.4133
▁Jesus	-12.4133
▁Krücken	-12.4133
▁Küchentheke	-12.4133
▁Pokal	-12.4133
▁Scout	-12.4133
▁flatbed	-12.4133
▁health	-12.4133
pfanne	-12.4133
rayola	-12.4133
▁Burka	-12.4133
▁diaper	-12.4133
▁Nacken	-12.4133
▁buoy	-12.4133
▁jug	-12.4133
▁verstreut	-12.4133
regnant	-12.4133
stufe	-12.4133
▁Earth	-12.4133
ristall	-12.4133
▁Enkel	-12.4133
▁Gyro	-12.4133
▁Horse	-12.4133
▁gehören	-12.4133
▁kickboxing	-12.4133
▁Fäuste	-12.4133
▁Schneewehe	-12.4133
▁deutlich	-12.4133
▁Leitung	-12.4133
▁Maulesel	-12.4133
▁Story	-12.4133
▁final	-12.4133
prallen	-12.4133
alcon	-12.4133
gierig	-12.4133
▁duscht	-12.4133
▁erwischen	-12.4133
▁notice	-12.4133
▁parasol	-12.4133
▁spiral	-12.4133
▁Stepp	-12.4133
abrio	-12.4133
▁Marine	-12.4133
▁origin	-12.4133
▁outfielder	-12.4133
rudel	-12.4133
▁rasieren	-12.4133
▁saust	-12.4133
▁Ananas	-12.4133
▁Matsch	-12.4133
▁melon	-12.4133
▁spear	-12.4133
▁simpl	-12.4133
kko	-12.4133
▁Tuba	-12.4133
▁horizontal	-12.4133
▁Colorful	-12.4133
willig	-12.4133
Hippie	-12.4133
▁repel	-12.4134
itrine	-12.4134
ongoli	-12.4134
bdeckung	-12.4134
▁grinsende	-12.4134
▁Houst	-12.4134
▁stutz	-12.4134
reizt	-12.4134
▁Katzenbab	-12.4134
▁Falke	-12.4135
▁Barriere	-12.4135
fortun	-12.4135
nsetzt	-12.4136
Airways	-12.4136
▁hügelige	-12.4136
▁Kino	-12.4137
Touch	-12.4137
▁save	-12.4138
Court	-12.4139
reinig	-12.4139
gegangen	-12.4139
höhe	-12.4139
▁grob	-12.414
stocher	-12.4141
Piercing	-12.4142
ACE	-12.4147
▁Darstell	-12.4149
▁glanc	-12.4156
Phone	-12.4158
ohlen	-12.4158
panisch	-12.4166
Pants	-12.4168
Industriegebäude	-12.4173
Paris	-12.4175
eburtstagskuchen	-12.4179
abgelassen	-12.4213
chichten	-12.4233
panish	-12.4234
▁gestric	-12.4235
bagger	-12.43
yeliner	-12.4317
▁Justi	-12.4334
▁goldgelbe	-12.4348
▁rappe	-12.4456
Afroamerikanerin	-12.4482
overalls	-12.4495
▁kiddi	-12.4519
heruntergefallen	-12.4538
crop	-12.4704
Armee	-12.4857
haut	-12.4861
builder	-12.5069
Akkordeonspieler	-12.5427
treiben	-12.6288
Pain	-12.63
▁navigat	-12.6902
addresses	-12.702
▁leuchten	-12.726
▁träg	-12.7276
▁onlooker	-12.7294
Geländefahr	-12.7314
prächtige	-12.7333
▁Gläser	-12.7369
▁gepunktete	-12.7369
▁Africa	-12.7373
Sandplatz	-12.7376
Klasse	-12.7377
füttert	-12.7378
Arena	-12.7378
Plakat	-12.7378
Wettkampf	-12.7379
climb	-12.7379
daughter	-12.7379
Flugzeug	-12.7379
marathon	-12.7379
Maschine	-12.738
Uniform	-12.738
trinken	-12.738
städtische	-12.738
Schaukel	-12.738
Tasche	-12.738
basketball	-12.738
trägt	-12.738
▁scream	-12.7381
▁study	-12.7382
▁Industrie	-12.741
etriever	-12.7426
▁Wartungs	-12.7435
▁langärm	-12.7457
▁Karussel	-12.746
kontroll	-12.7463
▁graffit	-12.7463
schriebene	-12.7464
händler	-12.7465
enaissance	-12.7465
polizist	-12.7465
Schlagman	-12.7465
amerikaner	-12.7465
▁Neoprenanz	-12.7466
ärmeligen	-12.7466
sperrt	-12.7466
Verbindung	-12.7466
fiziellen	-12.7466
▁Cupcake	-12.7466
▁Leichtathletik	-12.7466
▁Cheese	-12.7466
▁recycl	-12.7466
apparat	-12.7466
lphabet	-12.7466
▁Bereitschaft	-12.7466
▁Flach	-12.7466
▁Gastronomiebe	-12.7466
▁Jonglier	-12.7466
▁Pflege	-12.7466
▁Stroboskoplicht	-12.7466
▁Vergrößerungsgl	-12.7466
▁choreograph	-12.7466
▁scrubb	-12.7466
Feuerwerkskörper	-12.7466
Fäustlingen	-12.7466
Juweliergeschäft	-12.7466
Kreuzfahrtschiff	-12.7466
Leuchtreklame	-12.7466
Münzfernsprecher	-12.7466
Talkie	-12.7466
anhänger	-12.7466
ausstattung	-12.7466
Z	-14.4168
